const unsigned char g_model[] = {
0x20, 0x00, 0x00, 0x00, 0x54, 0x46, 0x4c, 0x33, 0x00, 0x00, 0x00, 0x00, 
, 0x14, 0x00, 0x20, 0x00, 0x1c, 0x00, 0x18, 0x00, 0x14, 0x00, 0x10, 0x00, 
, 0x0c, 0x00, 0x00, 0x00, 0x08, 0x00, 0x04, 0x00, 0x14, 0x00, 0x00, 0x00, 
, 0x1c, 0x00, 0x00, 0x00, 0x98, 0x00, 0x00, 0x00, 0x18, 0x01, 0x00, 0x00, 
, 0xb8, 0x08, 0x00, 0x00, 0xc8, 0x08, 0x00, 0x00, 0xa8, 0x20, 0x00, 0x00, 
, 0x03, 0x00, 0x00, 0x00, 0x01, 0x00, 0x00, 0x00, 0x10, 0x00, 0x00, 0x00, 
, 0x00, 0x00, 0x0a, 0x00, 0x10, 0x00, 0x0c, 0x00, 0x08, 0x00, 0x04, 0x00, 
, 0x0a, 0x00, 0x00, 0x00, 0x0c, 0x00, 0x00, 0x00, 0x1c, 0x00, 0x00, 0x00, 
, 0x3c, 0x00, 0x00, 0x00, 0x0f, 0x00, 0x00, 0x00, 0x73, 0x65, 0x72, 0x76, 
, 0x69, 0x6e, 0x67, 0x5f, 0x64, 0x65, 0x66, 0x61, 0x75, 0x6c, 0x74, 0x00, 
, 0x01, 0x00, 0x00, 0x00, 0x04, 0x00, 0x00, 0x00, 0x68, 0xff, 0xff, 0xff, 
, 0x17, 0x00, 0x00, 0x00, 0x04, 0x00, 0x00, 0x00, 0x08, 0x00, 0x00, 0x00, 
, 0x6f, 0x75, 0x74, 0x70, 0x75, 0x74, 0x5f, 0x30, 0x00, 0x00, 0x00, 0x00, 
, 0x01, 0x00, 0x00, 0x00, 0x04, 0x00, 0x00, 0x00, 0x26, 0xf7, 0xff, 0xff, 
, 0x04, 0x00, 0x00, 0x00, 0x0c, 0x00, 0x00, 0x00, 0x6b, 0x65, 0x72, 0x61, 
, 0x73, 0x5f, 0x74, 0x65, 0x6e, 0x73, 0x6f, 0x72, 0x00, 0x00, 0x00, 0x00, 
, 0x03, 0x00, 0x00, 0x00, 0x5c, 0x00, 0x00, 0x00, 0x2c, 0x00, 0x00, 0x00, 
, 0x04, 0x00, 0x00, 0x00, 0xb8, 0xff, 0xff, 0xff, 0x1b, 0x00, 0x00, 0x00, 
, 0x04, 0x00, 0x00, 0x00, 0x13, 0x00, 0x00, 0x00, 0x43, 0x4f, 0x4e, 0x56, 
, 0x45, 0x52, 0x53, 0x49, 0x4f, 0x4e, 0x5f, 0x4d, 0x45, 0x54, 0x41, 0x44, 
, 0x41, 0x54, 0x41, 0x00, 0xdc, 0xff, 0xff, 0xff, 0x1a, 0x00, 0x00, 0x00, 
, 0x04, 0x00, 0x00, 0x00, 0x13, 0x00, 0x00, 0x00, 0x6d, 0x69, 0x6e, 0x5f, 
, 0x72, 0x75, 0x6e, 0x74, 0x69, 0x6d, 0x65, 0x5f, 0x76, 0x65, 0x72, 0x73, 
, 0x69, 0x6f, 0x6e, 0x00, 0x08, 0x00, 0x0c, 0x00, 0x08, 0x00, 0x04, 0x00, 
, 0x08, 0x00, 0x00, 0x00, 0x19, 0x00, 0x00, 0x00, 0x04, 0x00, 0x00, 0x00, 
, 0x13, 0x00, 0x00, 0x00, 0x6d, 0x69, 0x6e, 0x5f, 0x72, 0x75, 0x6e, 0x74, 
, 0x69, 0x6d, 0x65, 0x5f, 0x76, 0x65, 0x72, 0x73, 0x69, 0x6f, 0x6e, 0x00, 
, 0x1c, 0x00, 0x00, 0x00, 0x9c, 0x07, 0x00, 0x00, 0x94, 0x07, 0x00, 0x00, 
, 0x7c, 0x07, 0x00, 0x00, 0x54, 0x07, 0x00, 0x00, 0x84, 0x06, 0x00, 0x00, 
, 0xf4, 0x05, 0x00, 0x00, 0xe4, 0x03, 0x00, 0x00, 0x94, 0x03, 0x00, 0x00, 
, 0xf4, 0x02, 0x00, 0x00, 0xa4, 0x02, 0x00, 0x00, 0x14, 0x02, 0x00, 0x00, 
, 0xe4, 0x01, 0x00, 0x00, 0x8c, 0x01, 0x00, 0x00, 0x5c, 0x01, 0x00, 0x00, 
, 0x04, 0x01, 0x00, 0x00, 0xfc, 0x00, 0x00, 0x00, 0xf4, 0x00, 0x00, 0x00, 
, 0xec, 0x00, 0x00, 0x00, 0xe4, 0x00, 0x00, 0x00, 0xdc, 0x00, 0x00, 0x00, 
, 0xd4, 0x00, 0x00, 0x00, 0xcc, 0x00, 0x00, 0x00, 0xc4, 0x00, 0x00, 0x00, 
, 0xbc, 0x00, 0x00, 0x00, 0xb4, 0x00, 0x00, 0x00, 0x94, 0x00, 0x00, 0x00, 
, 0x74, 0x00, 0x00, 0x00, 0x04, 0x00, 0x00, 0x00, 0x3a, 0xf8, 0xff, 0xff, 
, 0x04, 0x00, 0x00, 0x00, 0x60, 0x00, 0x00, 0x00, 0x0c, 0x00, 0x00, 0x00, 
, 0x08, 0x00, 0x0e, 0x00, 0x08, 0x00, 0x04, 0x00, 0x08, 0x00, 0x00, 0x00, 
, 0x10, 0x00, 0x00, 0x00, 0x28, 0x00, 0x00, 0x00, 0x00, 0x00, 0x06, 0x00, 
, 0x08, 0x00, 0x04, 0x00, 0x06, 0x00, 0x00, 0x00, 0x04, 0x00, 0x00, 0x00, 
, 0x01, 0x00, 0x00, 0x00, 0xeb, 0x03, 0x00, 0x00, 0x0c, 0x00, 0x18, 0x00, 
, 0x14, 0x00, 0x10, 0x00, 0x0c, 0x00, 0x04, 0x00, 0x0c, 0x00, 0x00, 0x00, 
, 0x54, 0x60, 0x9a, 0x21, 0x82, 0x65, 0xe7, 0x2c, 0x02, 0x00, 0x00, 0x00, 
, 0x02, 0x00, 0x00, 0x00, 0x04, 0x00, 0x00, 0x00, 0x06, 0x00, 0x00, 0x00, 
, 0x32, 0x2e, 0x31, 0x39, 0x2e, 0x30, 0x00, 0x00, 0xa6, 0xf8, 0xff, 0xff, 
, 0x04, 0x00, 0x00, 0x00, 0x10, 0x00, 0x00, 0x00, 0x00, 0x00, 0x00, 0x00, 
, 0x00, 0x00, 0x00, 0x00, 0x00, 0x00, 0x00, 0x00, 0x00, 0x00, 0x00, 0x00, 
, 0xc2, 0xf8, 0xff, 0xff, 0x04, 0x00, 0x00, 0x00, 0x10, 0x00, 0x00, 0x00, 
, 0x31, 0x2e, 0x31, 0x34, 0x2e, 0x30, 0x00, 0x00, 0x00, 0x00, 0x00, 0x00, 
, 0x00, 0x00, 0x00, 0x00, 0x50, 0xe2, 0xff, 0xff, 0x54, 0xe2, 0xff, 0xff, 
, 0x58, 0xe2, 0xff, 0xff, 0x5c, 0xe2, 0xff, 0xff, 0x60, 0xe2, 0xff, 0xff, 
, 0x64, 0xe2, 0xff, 0xff, 0x68, 0xe2, 0xff, 0xff, 0x6c, 0xe2, 0xff, 0xff, 
, 0x70, 0xe2, 0xff, 0xff, 0x74, 0xe2, 0xff, 0xff, 0x06, 0xf9, 0xff, 0xff, 
, 0x04, 0x00, 0x00, 0x00, 0x48, 0x00, 0x00, 0x00, 0x7f, 0xb7, 0x32, 0x3b, 
, 0xb3, 0xc7, 0xdd, 0x01, 0xa0, 0x29, 0x81, 0x78, 0x1c, 0x8a, 0x47, 0xd2, 
, 0x57, 0x1f, 0xc1, 0x02, 0x81, 0xbb, 0x04, 0x1d, 0x12, 0xc2, 0x78, 0x15, 
, 0xf5, 0x6f, 0xff, 0xda, 0x0e, 0x47, 0xd0, 0x7f, 0x88, 0x64, 0x40, 0xa0, 
, 0xbc, 0x68, 0x13, 0x97, 0x7f, 0x58, 0xa6, 0xad, 0x7f, 0xa0, 0xef, 0x6a, 
, 0x42, 0x87, 0x90, 0xed, 0x8f, 0x2c, 0x63, 0x81, 0x0d, 0x7d, 0xba, 0xf1, 
, 0x7f, 0xb9, 0x3b, 0x52, 0xbe, 0xdd, 0xd7, 0x93, 0x5a, 0xf9, 0xff, 0xff, 
, 0x04, 0x00, 0x00, 0x00, 0x20, 0x00, 0x00, 0x00, 0xf6, 0xff, 0xff, 0xff, 
, 0x03, 0x00, 0x00, 0x00, 0x07, 0x00, 0x00, 0x00, 0xf6, 0xff, 0xff, 0xff, 
, 0x02, 0x00, 0x00, 0x00, 0xf6, 0xff, 0xff, 0xff, 0x17, 0x00, 0x00, 0x00, 
, 0xf6, 0xff, 0xff, 0xff, 0x86, 0xf9, 0xff, 0xff, 0x04, 0x00, 0x00, 0x00, 
, 0x48, 0x00, 0x00, 0x00, 0x7d, 0xa7, 0x33, 0x81, 0xad, 0xff, 0xff, 0x4e, 
, 0xf9, 0x32, 0x37, 0x73, 0xc0, 0x7f, 0x21, 0x31, 0xc7, 0x81, 0xca, 0xce, 
, 0x9a, 0xd1, 0xef, 0xff, 0xf2, 0x46, 0x5a, 0x82, 0x91, 0xcc, 0x7f, 0x7f, 
, 0xd7, 0x64, 0x56, 0x76, 0x01, 0x73, 0x67, 0x6d, 0xb9, 0x02, 0xde, 0x94, 
, 0xcb, 0x00, 0xcb, 0x1c, 0x81, 0x01, 0x1d, 0x2a, 0xde, 0x3c, 0xd4, 0xfc, 
, 0xd4, 0xe2, 0x1e, 0x6c, 0x81, 0x11, 0x4f, 0x56, 0xfe, 0xc7, 0x81, 0x2e, 
, 0x01, 0xaf, 0xc7, 0xd6, 0xda, 0xf9, 0xff, 0xff, 0x04, 0x00, 0x00, 0x00, 
, 0x20, 0x00, 0x00, 0x00, 0x00, 0x00, 0x00, 0x00, 0x00, 0x00, 0x00, 0x00, 
, 0x00, 0x00, 0x00, 0x00, 0x00, 0x00, 0x00, 0x00, 0x00, 0x00, 0x00, 0x00, 
, 0x00, 0x00, 0x00, 0x00, 0x00, 0x00, 0x00, 0x00, 0x00, 0x00, 0x00, 0x00, 
, 0x06, 0xfa, 0xff, 0xff, 0x04, 0x00, 0x00, 0x00, 0x80, 0x00, 0x00, 0x00, 
, 0xdd, 0xab, 0x81, 0xca, 0x4b, 0x53, 0x3d, 0x70, 0x6b, 0x5c, 0xcc, 0xb6, 
, 0x7f, 0x7f, 0xe7, 0xc5, 0xcc, 0xf8, 0x38, 0x38, 0x7f, 0x2c, 0x55, 0xe3, 
, 0x81, 0x0c, 0x2e, 0xa6, 0x89, 0x01, 0x1e, 0x66, 0xf1, 0x81, 0xf2, 0x10, 
, 0x04, 0x2e, 0xe8, 0xd0, 0xb9, 0x03, 0x6f, 0xe0, 0x81, 0x12, 0xe3, 0x9a, 
, 0x89, 0x44, 0x3f, 0xcb, 0xc3, 0x6c, 0x86, 0x7f, 0x76, 0x36, 0xdd, 0x6f, 
, 0x3c, 0xad, 0x8f, 0x81, 0x01, 0xcc, 0xe5, 0x3a, 0x10, 0x81, 0xd3, 0xd8, 
, 0xe1, 0x41, 0x81, 0xdd, 0x49, 0x37, 0xa3, 0x2a, 0xdb, 0x70, 0x58, 0x16, 
, 0xcc, 0x7f, 0x46, 0x90, 0x7f, 0x81, 0xa9, 0xee, 0x71, 0xdc, 0x59, 0x63, 
, 0x49, 0x58, 0x37, 0x5f, 0xf4, 0x81, 0x1c, 0x11, 0x7f, 0xc7, 0x08, 0xd3, 
, 0x41, 0x00, 0x40, 0x12, 0x92, 0xc4, 0xb7, 0x86, 0x18, 0x0b, 0x7f, 0x6c, 
, 0x81, 0xb1, 0x32, 0x1c, 0xae, 0x04, 0xb0, 0x70, 0x92, 0xfa, 0xff, 0xff, 
, 0x04, 0x00, 0x00, 0x00, 0x40, 0x00, 0x00, 0x00, 0xfb, 0xff, 0xff, 0xff, 
, 0x09, 0x00, 0x00, 0x00, 0x01, 0x00, 0x00, 0x00, 0xf6, 0xff, 0xff, 0xff, 
, 0x01, 0x00, 0x00, 0x00, 0x01, 0x00, 0x00, 0x00, 0xf3, 0xff, 0xff, 0xff, 
, 0x01, 0x00, 0x00, 0x00, 0xf0, 0xff, 0xff, 0xff, 0xf9, 0xff, 0xff, 0xff, 
, 0xfa, 0xff, 0xff, 0xff, 0x04, 0x00, 0x00, 0x00, 0x10, 0x00, 0x00, 0x00, 
, 0x02, 0x00, 0x00, 0x00, 0xfd, 0xff, 0xff, 0xff, 0x05, 0x00, 0x00, 0x00, 
, 0xde, 0xfa, 0xff, 0xff, 0x04, 0x00, 0x00, 0x00, 0x90, 0x00, 0x00, 0x00, 
, 0x1f, 0x03, 0x8f, 0x43, 0x8b, 0x24, 0x37, 0xd3, 0xe1, 0x7f, 0x08, 0x40, 
, 0x8f, 0x81, 0x81, 0x81, 0xbf, 0x7f, 0x66, 0x82, 0xe6, 0x81, 0xee, 0x81, 
, 0x25, 0x25, 0x87, 0x1f, 0x0e, 0xb5, 0x50, 0x60, 0x81, 0x39, 0x7f, 0x1f, 
, 0x28, 0x7a, 0xc8, 0x78, 0xc3, 0x09, 0xc3, 0x29, 0x7f, 0xe4, 0x4b, 0x6b, 
, 0x17, 0xd8, 0x8c, 0xfb, 0x81, 0xbc, 0x81, 0xec, 0x2c, 0x67, 0x4a, 0x04, 
, 0x1b, 0xa4, 0x19, 0x98, 0xe8, 0x12, 0x90, 0x76, 0xdb, 0x64, 0xd4, 0xa5, 
, 0x3e, 0x50, 0x39, 0x52, 0xef, 0xf7, 0xb1, 0xc9, 0xa0, 0x4f, 0x5d, 0xb7, 
, 0xc4, 0xf7, 0x91, 0x1e, 0xc4, 0x06, 0x0a, 0x7f, 0x22, 0xea, 0xf1, 0x75, 
, 0x0b, 0xc9, 0xcd, 0x12, 0xb9, 0x58, 0x9c, 0x9b, 0x7f, 0x49, 0xb5, 0x0d, 
, 0x52, 0xc6, 0x44, 0x03, 0x3f, 0x03, 0x15, 0x13, 0x07, 0x39, 0xff, 0x07, 
, 0x4a, 0x64, 0x49, 0x4f, 0xcf, 0x07, 0x7b, 0xa0, 0x8b, 0x05, 0xf7, 0x81, 
, 0xad, 0xaa, 0xbb, 0x4e, 0xbf, 0x62, 0x81, 0x3e, 0x1f, 0x20, 0xac, 0x93, 
, 0x7a, 0xfb, 0xff, 0xff, 0x04, 0x00, 0x00, 0x00, 0x40, 0x00, 0x00, 0x00, 
, 0x00, 0x00, 0x00, 0x00, 0x00, 0x00, 0x00, 0x00, 0x00, 0x00, 0x00, 0x00, 
, 0x00, 0x00, 0x00, 0x00, 0x00, 0x00, 0x00, 0x00, 0x00, 0x00, 0x00, 0x00, 
, 0x00, 0x00, 0x00, 0x00, 0x00, 0x00, 0x00, 0x00, 0x00, 0x00, 0x00, 0x00, 
, 0x00, 0x00, 0x00, 0x00, 0x00, 0x00, 0x00, 0x00, 0x00, 0x00, 0x00, 0x00, 
, 0x00, 0x00, 0x00, 0x00, 0x00, 0x00, 0x00, 0x00, 0x00, 0x00, 0x00, 0x00, 
, 0x00, 0x00, 0x00, 0x00, 0xc6, 0xfb, 0xff, 0xff, 0x04, 0x00, 0x00, 0x00, 
, 0x00, 0x02, 0x00, 0x00, 0x35, 0xff, 0xbd, 0x81, 0xf6, 0x1c, 0xfb, 0x08, 
, 0xf8, 0x33, 0xfd, 0x9a, 0x44, 0x0e, 0xb2, 0xda, 0x74, 0x7f, 0xdd, 0x5b, 
, 0xe2, 0xea, 0x94, 0xf9, 0x6c, 0xb0, 0xf5, 0x52, 0x87, 0x9e, 0x6b, 0x10, 
, 0xfc, 0xdc, 0x7f, 0xdb, 0xc5, 0x3f, 0xcb, 0xd1, 0xbd, 0xc0, 0x0c, 0xfc, 
, 0xf6, 0x02, 0xc1, 0xbc, 0x44, 0x18, 0xb9, 0xc7, 0x1c, 0xc0, 0x0a, 0x3e, 
, 0xa4, 0xdb, 0xe2, 0x08, 0x38, 0xfa, 0xd4, 0x7f, 0x28, 0xfc, 0x7f, 0x29, 
, 0xf0, 0xce, 0xb0, 0xc7, 0xf5, 0x5b, 0xf5, 0x6a, 0x21, 0x78, 0xfa, 0x9c, 
, 0xdb, 0x42, 0x7f, 0xb1, 0x2b, 0x21, 0x19, 0xc0, 0xd5, 0xc2, 0xf5, 0x17, 
, 0x1a, 0xe9, 0x1b, 0xa1, 0x3f, 0xa4, 0x3c, 0xaf, 0x56, 0x81, 0xcd, 0x04, 
, 0x21, 0xd3, 0xcd, 0x7e, 0x8d, 0xc2, 0x50, 0x14, 0x38, 0x7f, 0xeb, 0xfb, 
, 0xbe, 0x11, 0xdb, 0x50, 0x03, 0xa1, 0x01, 0x22, 0xfd, 0x16, 0x23, 0xd9, 
, 0x62, 0x31, 0xa9, 0x4d, 0x67, 0x0d, 0x0f, 0x0a, 0x3a, 0x7f, 0x2f, 0xf0, 
, 0xef, 0x2f, 0xe3, 0xf6, 0x21, 0x7f, 0xe1, 0xf2, 0xf1, 0x02, 0xfb, 0x22, 
, 0xdf, 0xd4, 0x0b, 0xde, 0xb2, 0x00, 0xbb, 0xcd, 0xde, 0xe3, 0xdf, 0xa7, 
, 0x01, 0x3a, 0xc6, 0xb2, 0xf7, 0x6a, 0xf9, 0x0c, 0x33, 0x7f, 0x0d, 0x2b, 
, 0xb6, 0x04, 0x3c, 0x3d, 0x34, 0x37, 0x17, 0xfb, 0xcc, 0x66, 0xb8, 0x1a, 
, 0xcd, 0x81, 0x21, 0xa8, 0x18, 0x4a, 0x0a, 0xd3, 0x14, 0xc0, 0xa6, 0x7f, 
, 0x66, 0x20, 0xb1, 0xf2, 0x5e, 0x62, 0x1e, 0x32, 0x49, 0xc2, 0x2f, 0xf0, 
, 0x46, 0xe9, 0x1b, 0xbe, 0x0c, 0x33, 0xee, 0x21, 0x7f, 0xd6, 0x33, 0x9e, 
, 0xe4, 0xe9, 0x41, 0xf3, 0xe3, 0x81, 0x00, 0x3b, 0xf7, 0x0f, 0xcc, 0xe9, 
, 0xca, 0x05, 0xa9, 0x05, 0x1e, 0x72, 0x3e, 0x4c, 0xdf, 0xd8, 0x63, 0x6e, 
, 0xc3, 0x22, 0xda, 0x28, 0x4c, 0x81, 0x9e, 0xc0, 0x0b, 0xd7, 0x3d, 0xa1, 
, 0x72, 0x04, 0x0f, 0x16, 0x68, 0xd3, 0x00, 0xfd, 0x81, 0x00, 0x28, 0x24, 
, 0x01, 0x7c, 0x9c, 0x0a, 0xf5, 0x07, 0xfa, 0x97, 0x70, 0xa5, 0x7f, 0xb3, 
, 0x65, 0xe8, 0x55, 0x01, 0xf5, 0x4a, 0xc6, 0x78, 0x76, 0xfb, 0xf0, 0xe2, 
, 0x60, 0x7f, 0xab, 0x3e, 0x1b, 0x4b, 0x62, 0x3a, 0x5c, 0xb1, 0x81, 0x38, 
, 0xda, 0xa8, 0xe1, 0xc5, 0xca, 0xfc, 0x58, 0x85, 0x3c, 0xac, 0x68, 0x56, 
, 0x35, 0x19, 0xaf, 0x05, 0x36, 0xb9, 0xc3, 0x22, 0x4f, 0x81, 0xb4, 0xa5, 
, 0x0e, 0xf2, 0xe9, 0xee, 0xc6, 0x07, 0xea, 0x90, 0xcf, 0xa7, 0xb9, 0x25, 
, 0x03, 0x03, 0xbe, 0xeb, 0x7f, 0x2d, 0x30, 0x62, 0xc6, 0xc8, 0xc8, 0xe7, 
, 0x7f, 0x12, 0xdd, 0xb0, 0x35, 0x68, 0xc1, 0xb3, 0x20, 0xea, 0xce, 0x1a, 
, 0x58, 0x05, 0xd8, 0x20, 0xd6, 0xc9, 0x3a, 0x0c, 0xbe, 0xd0, 0xfe, 0x32, 
, 0xcd, 0xf3, 0x81, 0xce, 0xe7, 0x3b, 0x3e, 0x2f, 0x1c, 0x16, 0xb0, 0xf8, 
, 0x24, 0x15, 0x3b, 0x49, 0x00, 0x7f, 0xcb, 0xfd, 0x00, 0x1c, 0xc6, 0xe8, 
, 0x13, 0xa7, 0x22, 0x59, 0x81, 0xea, 0x52, 0x78, 0x9a, 0xf0, 0xac, 0xba, 
, 0x3d, 0xc3, 0x4f, 0x8a, 0x84, 0xb5, 0xab, 0x97, 0x2a, 0xc3, 0x16, 0x7f, 
, 0x4d, 0xac, 0xb3, 0xb8, 0xfa, 0x07, 0x1e, 0x56, 0x65, 0x35, 0x30, 0xd3, 
, 0x2d, 0x81, 0x61, 0xcf, 0xec, 0x35, 0x3a, 0x10, 0x21, 0x7f, 0xa7, 0x2c, 
, 0xdf, 0x17, 0xd9, 0x43, 0x25, 0xb9, 0xe2, 0xdd, 0xbf, 0x8a, 0x14, 0x09, 
, 0x7f, 0x03, 0xe1, 0xbf, 0xe2, 0x87, 0xf0, 0xe8, 0x39, 0xce, 0x6f, 0x94, 
, 0x45, 0xa3, 0x0b, 0x14, 0xcc, 0xba, 0xcf, 0xd6, 0x4d, 0xef, 0xbd, 0x91, 
, 0xfd, 0x4b, 0x81, 0xd6, 0xed, 0xce, 0x49, 0x5a, 0xc5, 0x51, 0x66, 0x5f, 
, 0xdf, 0xd6, 0xbc, 0x38, 0x0b, 0xbc, 0x1a, 0x2a, 0x4d, 0xd8, 0x81, 0xd0, 
, 0xd2, 0xfd, 0xff, 0xff, 0x04, 0x00, 0x00, 0x00, 0x80, 0x00, 0x00, 0x00, 
, 0xfd, 0xff, 0xff, 0xff, 0x16, 0x00, 0x00, 0x00, 0x11, 0x00, 0x00, 0x00, 
, 0x17, 0x00, 0x00, 0x00, 0x12, 0x00, 0x00, 0x00, 0x24, 0x00, 0x00, 0x00, 
, 0x0a, 0x00, 0x00, 0x00, 0x03, 0x00, 0x00, 0x00, 0xed, 0xff, 0xff, 0xff, 
, 0x11, 0x00, 0x00, 0x00, 0xe9, 0xff, 0xff, 0xff, 0x0c, 0x00, 0x00, 0x00, 
, 0xdb, 0xff, 0xff, 0xff, 0x08, 0x00, 0x00, 0x00, 0x00, 0x00, 0x00, 0x00, 
, 0x02, 0x00, 0x00, 0x00, 0xe9, 0xff, 0xff, 0xff, 0xdb, 0xff, 0xff, 0xff, 
, 0xe6, 0xff, 0xff, 0xff, 0x11, 0x00, 0x00, 0x00, 0xf6, 0xff, 0xff, 0xff, 
, 0xfa, 0xff, 0xff, 0xff, 0xef, 0xff, 0xff, 0xff, 0xfa, 0xff, 0xff, 0xff, 
, 0xeb, 0xff, 0xff, 0xff, 0xdf, 0xff, 0xff, 0xff, 0xe2, 0xff, 0xff, 0xff, 
, 0xea, 0xff, 0xff, 0xff, 0x17, 0x00, 0x00, 0x00, 0xdc, 0xff, 0xff, 0xff, 
, 0xf5, 0xff, 0xff, 0xff, 0x13, 0x00, 0x00, 0x00, 0x5e, 0xfe, 0xff, 0xff, 
, 0x04, 0x00, 0x00, 0x00, 0xc0, 0x00, 0x00, 0x00, 0x06, 0xc8, 0x58, 0x6b, 
, 0x59, 0x39, 0x0f, 0xb2, 0x38, 0x55, 0xfd, 0x4e, 0xc8, 0x2c, 0x20, 0x7f, 
, 0x88, 0xe3, 0xe4, 0x62, 0xa6, 0x50, 0x2b, 0xe8, 0x1b, 0xe5, 0xc0, 0x9e, 
, 0xa3, 0x34, 0xbf, 0x50, 0x4a, 0xff, 0x0c, 0x7f, 0x04, 0x25, 0x02, 0x99, 
, 0x61, 0xa5, 0x65, 0xe6, 0x3e, 0xc1, 0x5e, 0xb2, 0x5c, 0x08, 0x52, 0x3c, 
, 0xd5, 0x9d, 0x08, 0x31, 0xe9, 0x65, 0xd9, 0x6e, 0x95, 0xa8, 0xc1, 0xf2, 
, 0x1c, 0x43, 0xe9, 0x23, 0xf3, 0x31, 0x0d, 0xeb, 0x04, 0x3a, 0xc6, 0x25, 
, 0xc7, 0xac, 0xb0, 0x0c, 0xfb, 0x1c, 0x99, 0x3a, 0x04, 0xda, 0xb4, 0xd8, 
, 0xa5, 0xdc, 0xec, 0x81, 0x40, 0xd9, 0xda, 0x1d, 0xdf, 0xf2, 0xb2, 0xe8, 
, 0xe7, 0xc8, 0xe2, 0xcd, 0x0c, 0x02, 0xca, 0x02, 0x3a, 0xbc, 0x7f, 0xdf, 
, 0x31, 0x3a, 0xd7, 0xd0, 0x07, 0x28, 0x11, 0xc1, 0x3a, 0x2a, 0x1a, 0xee, 
, 0xe9, 0x1b, 0x22, 0xf9, 0xfc, 0xcb, 0x1e, 0xc6, 0x24, 0xee, 0x6d, 0x0a, 
, 0xc6, 0x72, 0x9e, 0xb1, 0x37, 0x31, 0x81, 0xe7, 0xf0, 0x05, 0xca, 0xa1, 
, 0x17, 0x65, 0x9d, 0x3c, 0x74, 0x68, 0x29, 0xb5, 0xd1, 0xaf, 0xc9, 0x57, 
, 0x56, 0xf8, 0xd8, 0xf5, 0xdd, 0xb6, 0x06, 0x99, 0x2e, 0x4b, 0x95, 0xaa, 
, 0x82, 0x37, 0x7f, 0xc4, 0x4c, 0x41, 0xf5, 0x12, 0x2b, 0x0c, 0x6a, 0x3b, 
, 0x66, 0x9d, 0xf3, 0x32, 0xac, 0x71, 0x26, 0xe8, 0x2a, 0xff, 0xff, 0xff, 
, 0x04, 0x00, 0x00, 0x00, 0x18, 0x00, 0x00, 0x00, 0x67, 0x00, 0x00, 0x00, 
, 0x60, 0xff, 0xff, 0xff, 0xf0, 0x00, 0x00, 0x00, 0x5f, 0xff, 0xff, 0xff, 
, 0xfd, 0xff, 0xff, 0xff, 0x4c, 0x00, 0x00, 0x00, 0x4e, 0xff, 0xff, 0xff, 
, 0x04, 0x00, 0x00, 0x00, 0x08, 0x00, 0x00, 0x00, 0x01, 0x00, 0x00, 0x00, 
, 0x02, 0x00, 0x00, 0x00, 0xd4, 0xe8, 0xff, 0xff, 0xd8, 0xe8, 0xff, 0xff, 
, 0x0f, 0x00, 0x00, 0x00, 0x4d, 0x4c, 0x49, 0x52, 0x20, 0x43, 0x6f, 0x6e, 
, 0x76, 0x65, 0x72, 0x74, 0x65, 0x64, 0x2e, 0x00, 0x01, 0x00, 0x00, 0x00, 
, 0x14, 0x00, 0x00, 0x00, 0x00, 0x00, 0x0e, 0x00, 0x18, 0x00, 0x14, 0x00, 
, 0x10, 0x00, 0x0c, 0x00, 0x08, 0x00, 0x04, 0x00, 0x0e, 0x00, 0x00, 0x00, 
, 0x14, 0x00, 0x00, 0x00, 0x1c, 0x00, 0x00, 0x00, 0x00, 0x03, 0x00, 0x00, 
, 0x04, 0x03, 0x00, 0x00, 0x08, 0x03, 0x00, 0x00, 0x04, 0x00, 0x00, 0x00, 
, 0x6d, 0x61, 0x69, 0x6e, 0x00, 0x00, 0x00, 0x00, 0x0a, 0x00, 0x00, 0x00, 
, 0x9c, 0x02, 0x00, 0x00, 0x38, 0x02, 0x00, 0x00, 0xd8, 0x01, 0x00, 0x00, 
, 0x78, 0x01, 0x00, 0x00, 0x34, 0x01, 0x00, 0x00, 0xf0, 0x00, 0x00, 0x00, 
, 0xac, 0x00, 0x00, 0x00, 0x78, 0x00, 0x00, 0x00, 0x40, 0x00, 0x00, 0x00, 
, 0x04, 0x00, 0x00, 0x00, 0xfa, 0xfd, 0xff, 0xff, 0x1c, 0x00, 0x00, 0x00, 
, 0x00, 0x00, 0x00, 0x09, 0x1c, 0x00, 0x00, 0x00, 0x20, 0x00, 0x00, 0x00, 
, 0x05, 0x00, 0x00, 0x00, 0x00, 0x00, 0x06, 0x00, 0x08, 0x00, 0x04, 0x00, 
, 0x06, 0x00, 0x00, 0x00, 0x00, 0x00, 0x80, 0x3f, 0x01, 0x00, 0x00, 0x00, 
, 0x17, 0x00, 0x00, 0x00, 0x01, 0x00, 0x00, 0x00, 0x16, 0x00, 0x00, 0x00, 
, 0x8e, 0xfe, 0xff, 0xff, 0x14, 0x00, 0x00, 0x00, 0x00, 0x00, 0x00, 0x08, 
, 0x10, 0x00, 0x00, 0x00, 0x14, 0x00, 0x00, 0x00, 0x04, 0x00, 0x00, 0x00, 
, 0xa8, 0xe9, 0xff, 0xff, 0x01, 0x00, 0x00, 0x00, 0x16, 0x00, 0x00, 0x00, 
, 0x03, 0x00, 0x00, 0x00, 0x15, 0x00, 0x00, 0x00, 0x03, 0x00, 0x00, 0x00, 
, 0x02, 0x00, 0x00, 0x00, 0xc2, 0xfe, 0xff, 0xff, 0x14, 0x00, 0x00, 0x00, 
, 0x00, 0x00, 0x00, 0x1b, 0x10, 0x00, 0x00, 0x00, 0x14, 0x00, 0x00, 0x00, 
, 0x03, 0x00, 0x00, 0x00, 0xdc, 0xe9, 0xff, 0xff, 0x01, 0x00, 0x00, 0x00, 
, 0x15, 0x00, 0x00, 0x00, 0x02, 0x00, 0x00, 0x00, 0x14, 0x00, 0x00, 0x00, 
, 0x01, 0x00, 0x00, 0x00, 0x36, 0xfe, 0xff, 0xff, 0x10, 0x00, 0x00, 0x00, 
, 0x00, 0x00, 0x00, 0x01, 0x1c, 0x00, 0x00, 0x00, 0x20, 0x00, 0x00, 0x00, 
, 0x40, 0xff, 0xff, 0xff, 0x00, 0x00, 0x00, 0x01, 0x01, 0x00, 0x00, 0x00, 
, 0x01, 0x00, 0x00, 0x00, 0x00, 0x00, 0x00, 0x01, 0x01, 0x00, 0x00, 0x00, 
, 0x14, 0x00, 0x00, 0x00, 0x03, 0x00, 0x00, 0x00, 0x13, 0x00, 0x00, 0x00, 
, 0x05, 0x00, 0x00, 0x00, 0x04, 0x00, 0x00, 0x00, 0x32, 0xff, 0xff, 0xff, 
, 0x14, 0x00, 0x00, 0x00, 0x00, 0x00, 0x00, 0x02, 0x1c, 0x00, 0x00, 0x00, 
, 0x20, 0x00, 0x00, 0x00, 0x02, 0x00, 0x00, 0x00, 0x24, 0xff, 0xff, 0xff, 
, 0x01, 0x00, 0x00, 0x00, 0x01, 0x00, 0x00, 0x00, 0x01, 0x00, 0x00, 0x00, 
, 0x01, 0x00, 0x00, 0x00, 0x13, 0x00, 0x00, 0x00, 0x03, 0x00, 0x00, 0x00, 
, 0x12, 0x00, 0x00, 0x00, 0x07, 0x00, 0x00, 0x00, 0x06, 0x00, 0x00, 0x00, 
, 0x72, 0xff, 0xff, 0xff, 0x14, 0x00, 0x00, 0x00, 0x00, 0x00, 0x00, 0x05, 
, 0x24, 0x00, 0x00, 0x00, 0x28, 0x00, 0x00, 0x00, 0x01, 0x00, 0x00, 0x00, 
, 0x06, 0xff, 0xff, 0xff, 0x02, 0x00, 0x00, 0x00, 0x02, 0x00, 0x00, 0x00, 
, 0x02, 0x00, 0x00, 0x00, 0x02, 0x00, 0x00, 0x00, 0x00, 0x00, 0x00, 0x01, 
, 0x01, 0x00, 0x00, 0x00, 0x12, 0x00, 0x00, 0x00, 0x01, 0x00, 0x00, 0x00, 
, 0x11, 0x00, 0x00, 0x00, 0xf6, 0xfe, 0xff, 0xff, 0x1c, 0x00, 0x00, 0x00, 
, 0x00, 0x00, 0x00, 0x01, 0x28, 0x00, 0x00, 0x00, 0x2c, 0x00, 0x00, 0x00, 
, 0x0c, 0x00, 0x14, 0x00, 0x13, 0x00, 0x0c, 0x00, 0x08, 0x00, 0x07, 0x00, 
, 0x0c, 0x00, 0x00, 0x00, 0x00, 0x00, 0x00, 0x01, 0x01, 0x00, 0x00, 0x00, 
, 0x01, 0x00, 0x00, 0x00, 0x00, 0x00, 0x00, 0x01, 0x01, 0x00, 0x00, 0x00, 
, 0x11, 0x00, 0x00, 0x00, 0x03, 0x00, 0x00, 0x00, 0x10, 0x00, 0x00, 0x00, 
, 0x09, 0x00, 0x00, 0x00, 0x08, 0x00, 0x00, 0x00, 0x00, 0x00, 0x0e, 0x00, 
, 0x18, 0x00, 0x14, 0x00, 0x10, 0x00, 0x0c, 0x00, 0x0b, 0x00, 0x04, 0x00, 
, 0x0e, 0x00, 0x00, 0x00, 0x20, 0x00, 0x00, 0x00, 0x00, 0x00, 0x00, 0x02, 
, 0x28, 0x00, 0x00, 0x00, 0x2c, 0x00, 0x00, 0x00, 0x02, 0x00, 0x00, 0x00, 
, 0x0c, 0x00, 0x10, 0x00, 0x00, 0x00, 0x0c, 0x00, 0x08, 0x00, 0x04, 0x00, 
, 0x0c, 0x00, 0x00, 0x00, 0x01, 0x00, 0x00, 0x00, 0x01, 0x00, 0x00, 0x00, 
, 0x01, 0x00, 0x00, 0x00, 0x01, 0x00, 0x00, 0x00, 0x10, 0x00, 0x00, 0x00, 
, 0x03, 0x00, 0x00, 0x00, 0x0f, 0x00, 0x00, 0x00, 0x0b, 0x00, 0x00, 0x00, 
, 0x0a, 0x00, 0x00, 0x00, 0x00, 0x00, 0x0e, 0x00, 0x1a, 0x00, 0x14, 0x00, 
, 0x10, 0x00, 0x0c, 0x00, 0x0b, 0x00, 0x04, 0x00, 0x0e, 0x00, 0x00, 0x00, 
, 0x24, 0x00, 0x00, 0x00, 0x00, 0x00, 0x00, 0x05, 0x34, 0x00, 0x00, 0x00, 
, 0x38, 0x00, 0x00, 0x00, 0x01, 0x00, 0x00, 0x00, 0x00, 0x00, 0x0e, 0x00, 
, 0x18, 0x00, 0x17, 0x00, 0x10, 0x00, 0x0c, 0x00, 0x08, 0x00, 0x04, 0x00, 
, 0x0e, 0x00, 0x00, 0x00, 0x02, 0x00, 0x00, 0x00, 0x02, 0x00, 0x00, 0x00, 
, 0x02, 0x00, 0x00, 0x00, 0x02, 0x00, 0x00, 0x00, 0x00, 0x00, 0x00, 0x01, 
, 0x01, 0x00, 0x00, 0x00, 0x0f, 0x00, 0x00, 0x00, 0x01, 0x00, 0x00, 0x00, 
, 0x0e, 0x00, 0x00, 0x00, 0x00, 0x00, 0x0e, 0x00, 0x14, 0x00, 0x00, 0x00, 
, 0x10, 0x00, 0x0c, 0x00, 0x0b, 0x00, 0x04, 0x00, 0x0e, 0x00, 0x00, 0x00, 
, 0x1c, 0x00, 0x00, 0x00, 0x00, 0x00, 0x00, 0x01, 0x24, 0x00, 0x00, 0x00, 
, 0x28, 0x00, 0x00, 0x00, 0x0c, 0x00, 0x10, 0x00, 0x00, 0x00, 0x0c, 0x00, 
, 0x08, 0x00, 0x07, 0x00, 0x0c, 0x00, 0x00, 0x00, 0x00, 0x00, 0x00, 0x01, 
, 0x01, 0x00, 0x00, 0x00, 0x01, 0x00, 0x00, 0x00, 0x01, 0x00, 0x00, 0x00, 
, 0x0e, 0x00, 0x00, 0x00, 0x03, 0x00, 0x00, 0x00, 0x00, 0x00, 0x00, 0x00, 
, 0x0d, 0x00, 0x00, 0x00, 0x0c, 0x00, 0x00, 0x00, 0x01, 0x00, 0x00, 0x00, 
, 0x17, 0x00, 0x00, 0x00, 0x01, 0x00, 0x00, 0x00, 0x00, 0x00, 0x00, 0x00, 
, 0x18, 0x00, 0x00, 0x00, 0x14, 0x14, 0x00, 0x00, 0xb8, 0x13, 0x00, 0x00, 
, 0x00, 0x13, 0x00, 0x00, 0x5c, 0x12, 0x00, 0x00, 0x88, 0x10, 0x00, 0x00, 
, 0xa4, 0x0e, 0x00, 0x00, 0x90, 0x0d, 0x00, 0x00, 0x54, 0x0c, 0x00, 0x00, 
, 0x28, 0x0b, 0x00, 0x00, 0x04, 0x0a, 0x00, 0x00, 0x50, 0x09, 0x00, 0x00, 
, 0x88, 0x08, 0x00, 0x00, 0xd0, 0x07, 0x00, 0x00, 0x0c, 0x07, 0x00, 0x00, 
, 0x38, 0x06, 0x00, 0x00, 0x9c, 0x05, 0x00, 0x00, 0xf0, 0x04, 0x00, 0x00, 
, 0xfc, 0x03, 0x00, 0x00, 0x60, 0x03, 0x00, 0x00, 0xac, 0x02, 0x00, 0x00, 
, 0xb0, 0x01, 0x00, 0x00, 0x1c, 0x01, 0x00, 0x00, 0x80, 0x00, 0x00, 0x00, 
, 0x04, 0x00, 0x00, 0x00, 0x62, 0xec, 0xff, 0xff, 0x00, 0x00, 0x00, 0x01, 
, 0x18, 0x00, 0x00, 0x00, 0x20, 0x00, 0x00, 0x00, 0x3c, 0x00, 0x00, 0x00, 
, 0x18, 0x00, 0x00, 0x00, 0x00, 0x00, 0x00, 0x09, 0x50, 0x00, 0x00, 0x00, 
, 0x02, 0x00, 0x00, 0x00, 0xff, 0xff, 0xff, 0xff, 0x06, 0x00, 0x00, 0x00, 
, 0x44, 0xec, 0xff, 0xff, 0x08, 0x00, 0x00, 0x00, 0x10, 0x00, 0x00, 0x00, 
, 0x01, 0x00, 0x00, 0x00, 0x80, 0xff, 0xff, 0xff, 0xff, 0xff, 0xff, 0xff, 
, 0x01, 0x00, 0x00, 0x00, 0x00, 0x00, 0x80, 0x3b, 0x1b, 0x00, 0x00, 0x00, 
, 0x53, 0x74, 0x61, 0x74, 0x65, 0x66, 0x75, 0x6c, 0x50, 0x61, 0x72, 0x74, 
, 0x69, 0x74, 0x69, 0x6f, 0x6e, 0x65, 0x64, 0x43, 0x61, 0x6c, 0x6c, 0x5f, 
, 0x31, 0x3a, 0x30, 0x00, 0x02, 0x00, 0x00, 0x00, 0x01, 0x00, 0x00, 0x00, 
, 0x06, 0x00, 0x00, 0x00, 0xda, 0xec, 0xff, 0xff, 0x00, 0x00, 0x00, 0x01, 
, 0x18, 0x00, 0x00, 0x00, 0x20, 0x00, 0x00, 0x00, 0x3c, 0x00, 0x00, 0x00, 
, 0x17, 0x00, 0x00, 0x00, 0x00, 0x00, 0x00, 0x09, 0x70, 0x00, 0x00, 0x00, 
, 0x02, 0x00, 0x00, 0x00, 0xff, 0xff, 0xff, 0xff, 0x06, 0x00, 0x00, 0x00, 
, 0xbc, 0xec, 0xff, 0xff, 0x08, 0x00, 0x00, 0x00, 0x10, 0x00, 0x00, 0x00, 
, 0x01, 0x00, 0x00, 0x00, 0x25, 0x00, 0x00, 0x00, 0x00, 0x00, 0x00, 0x00, 
, 0x01, 0x00, 0x00, 0x00, 0x8c, 0x68, 0x8e, 0x3d, 0x38, 0x00, 0x00, 0x00, 
, 0x73, 0x65, 0x71, 0x75, 0x65, 0x6e, 0x74, 0x69, 0x61, 0x6c, 0x5f, 0x31, 
, 0x2f, 0x64, 0x65, 0x6e, 0x73, 0x65, 0x5f, 0x31, 0x2f, 0x4d, 0x61, 0x74, 
, 0x4d, 0x75, 0x6c, 0x3b, 0x73, 0x65, 0x71, 0x75, 0x65, 0x6e, 0x74, 0x69, 
, 0x61, 0x6c, 0x5f, 0x31, 0x2f, 0x64, 0x65, 0x6e, 0x73, 0x65, 0x5f, 0x31, 
, 0x2f, 0x42, 0x69, 0x61, 0x73, 0x41, 0x64, 0x64, 0x00, 0x00, 0x00, 0x00, 
, 0x02, 0x00, 0x00, 0x00, 0x01, 0x00, 0x00, 0x00, 0x06, 0x00, 0x00, 0x00, 
, 0x72, 0xed, 0xff, 0xff, 0x00, 0x00, 0x00, 0x01, 0x18, 0x00, 0x00, 0x00, 
, 0x20, 0x00, 0x00, 0x00, 0x40, 0x00, 0x00, 0x00, 0x16, 0x00, 0x00, 0x00, 
, 0x00, 0x00, 0x00, 0x09, 0x68, 0x00, 0x00, 0x00, 0x02, 0x00, 0x00, 0x00, 
, 0xff, 0xff, 0xff, 0xff, 0x20, 0x00, 0x00, 0x00, 0x54, 0xed, 0xff, 0xff, 
, 0x08, 0x00, 0x00, 0x00, 0x14, 0x00, 0x00, 0x00, 0x01, 0x00, 0x00, 0x00, 
, 0x80, 0xff, 0xff, 0xff, 0xff, 0xff, 0xff, 0xff, 0x00, 0x00, 0x00, 0x00, 
, 0x01, 0x00, 0x00, 0x00, 0x4d, 0xed, 0x6f, 0x3d, 0x2c, 0x00, 0x00, 0x00, 
, 0x73, 0x65, 0x71, 0x75, 0x65, 0x6e, 0x74, 0x69, 0x61, 0x6c, 0x5f, 0x31, 
, 0x2f, 0x67, 0x6c, 0x6f, 0x62, 0x61, 0x6c, 0x5f, 0x61, 0x76, 0x65, 0x72, 
, 0x61, 0x67, 0x65, 0x5f, 0x70, 0x6f, 0x6f, 0x6c, 0x69, 0x6e, 0x67, 0x32, 
, 0x64, 0x5f, 0x31, 0x2f, 0x4d, 0x65, 0x61, 0x6e, 0x00, 0x00, 0x00, 0x00, 
, 0x02, 0x00, 0x00, 0x00, 0x01, 0x00, 0x00, 0x00, 0x20, 0x00, 0x00, 0x00, 
, 0x02, 0xee, 0xff, 0xff, 0x00, 0x00, 0x00, 0x01, 0x18, 0x00, 0x00, 0x00, 
, 0x28, 0x00, 0x00, 0x00, 0x48, 0x00, 0x00, 0x00, 0x15, 0x00, 0x00, 0x00, 
, 0x00, 0x00, 0x00, 0x09, 0xc8, 0x00, 0x00, 0x00, 0x04, 0x00, 0x00, 0x00, 
, 0xff, 0xff, 0xff, 0xff, 0x08, 0x00, 0x00, 0x00, 0x03, 0x00, 0x00, 0x00, 
, 0x20, 0x00, 0x00, 0x00, 0xec, 0xed, 0xff, 0xff, 0x08, 0x00, 0x00, 0x00, 
, 0x14, 0x00, 0x00, 0x00, 0x01, 0x00, 0x00, 0x00, 0x80, 0xff, 0xff, 0xff, 
, 0xff, 0xff, 0xff, 0xff, 0x00, 0x00, 0x00, 0x00, 0x01, 0x00, 0x00, 0x00, 
, 0x19, 0xd6, 0x7d, 0x3e, 0x84, 0x00, 0x00, 0x00, 0x73, 0x65, 0x71, 0x75, 
, 0x65, 0x6e, 0x74, 0x69, 0x61, 0x6c, 0x5f, 0x31, 0x2f, 0x73, 0x65, 0x70, 
, 0x61, 0x72, 0x61, 0x62, 0x6c, 0x65, 0x5f, 0x63, 0x6f, 0x6e, 0x76, 0x32, 
, 0x64, 0x5f, 0x31, 0x5f, 0x32, 0x2f, 0x52, 0x65, 0x6c, 0x75, 0x3b, 0x73, 
, 0x65, 0x71, 0x75, 0x65, 0x6e, 0x74, 0x69, 0x61, 0x6c, 0x5f, 0x31, 0x2f, 
, 0x73, 0x65, 0x70, 0x61, 0x72, 0x61, 0x62, 0x6c, 0x65, 0x5f, 0x63, 0x6f, 
, 0x6e, 0x76, 0x32, 0x64, 0x5f, 0x31, 0x5f, 0x32, 0x2f, 0x42, 0x69, 0x61, 
, 0x73, 0x41, 0x64, 0x64, 0x3b, 0x73, 0x65, 0x71, 0x75, 0x65, 0x6e, 0x74, 
, 0x69, 0x61, 0x6c, 0x5f, 0x31, 0x2f, 0x73, 0x65, 0x70, 0x61, 0x72, 0x61, 
, 0x62, 0x6c, 0x65, 0x5f, 0x63, 0x6f, 0x6e, 0x76, 0x32, 0x64, 0x5f, 0x31, 
, 0x5f, 0x32, 0x2f, 0x73, 0x65, 0x70, 0x61, 0x72, 0x61, 0x62, 0x6c, 0x65, 
, 0x5f, 0x63, 0x6f, 0x6e, 0x76, 0x32, 0x64, 0x3b, 0x00, 0x00, 0x00, 0x00, 
, 0x04, 0x00, 0x00, 0x00, 0x01, 0x00, 0x00, 0x00, 0x08, 0x00, 0x00, 0x00, 
, 0x03, 0x00, 0x00, 0x00, 0x20, 0x00, 0x00, 0x00, 0xfa, 0xee, 0xff, 0xff, 
, 0x00, 0x00, 0x00, 0x01, 0x18, 0x00, 0x00, 0x00, 0x28, 0x00, 0x00, 0x00, 
, 0x48, 0x00, 0x00, 0x00, 0x14, 0x00, 0x00, 0x00, 0x00, 0x00, 0x00, 0x09, 
, 0x80, 0x00, 0x00, 0x00, 0x04, 0x00, 0x00, 0x00, 0xff, 0xff, 0xff, 0xff, 
, 0x08, 0x00, 0x00, 0x00, 0x03, 0x00, 0x00, 0x00, 0x10, 0x00, 0x00, 0x00, 
, 0xe4, 0xee, 0xff, 0xff, 0x08, 0x00, 0x00, 0x00, 0x14, 0x00, 0x00, 0x00, 
, 0x01, 0x00, 0x00, 0x00, 0xec, 0xff, 0xff, 0xff, 0xff, 0xff, 0xff, 0xff, 
, 0x00, 0x00, 0x00, 0x00, 0x01, 0x00, 0x00, 0x00, 0x60, 0x58, 0x19, 0x3f, 
, 0x3c, 0x00, 0x00, 0x00, 0x73, 0x65, 0x71, 0x75, 0x65, 0x6e, 0x74, 0x69, 
, 0x61, 0x6c, 0x5f, 0x31, 0x2f, 0x73, 0x65, 0x70, 0x61, 0x72, 0x61, 0x62, 
, 0x6c, 0x65, 0x5f, 0x63, 0x6f, 0x6e, 0x76, 0x32, 0x64, 0x5f, 0x31, 0x5f, 
, 0x32, 0x2f, 0x73, 0x65, 0x70, 0x61, 0x72, 0x61, 0x62, 0x6c, 0x65, 0x5f, 
, 0x63, 0x6f, 0x6e, 0x76, 0x32, 0x64, 0x2f, 0x64, 0x65, 0x70, 0x74, 0x68, 
, 0x77, 0x69, 0x73, 0x65, 0x00, 0x00, 0x00, 0x00, 0x04, 0x00, 0x00, 0x00, 
, 0x01, 0x00, 0x00, 0x00, 0x08, 0x00, 0x00, 0x00, 0x03, 0x00, 0x00, 0x00, 
, 0x10, 0x00, 0x00, 0x00, 0xaa, 0xef, 0xff, 0xff, 0x00, 0x00, 0x00, 0x01, 
, 0x18, 0x00, 0x00, 0x00, 0x28, 0x00, 0x00, 0x00, 0x44, 0x00, 0x00, 0x00, 
, 0x13, 0x00, 0x00, 0x00, 0x00, 0x00, 0x00, 0x09, 0x68, 0x00, 0x00, 0x00, 
, 0x04, 0x00, 0x00, 0x00, 0xff, 0xff, 0xff, 0xff, 0x08, 0x00, 0x00, 0x00, 
, 0x03, 0x00, 0x00, 0x00, 0x10, 0x00, 0x00, 0x00, 0x94, 0xef, 0xff, 0xff, 
, 0x08, 0x00, 0x00, 0x00, 0x10, 0x00, 0x00, 0x00, 0x01, 0x00, 0x00, 0x00, 
, 0x80, 0xff, 0xff, 0xff, 0xff, 0xff, 0xff, 0xff, 0x01, 0x00, 0x00, 0x00, 
, 0x42, 0xd0, 0xe4, 0x3f, 0x28, 0x00, 0x00, 0x00, 0x73, 0x65, 0x71, 0x75, 
, 0x65, 0x6e, 0x74, 0x69, 0x61, 0x6c, 0x5f, 0x31, 0x2f, 0x6d, 0x61, 0x78, 
, 0x5f, 0x70, 0x6f, 0x6f, 0x6c, 0x69, 0x6e, 0x67, 0x32, 0x64, 0x5f, 0x31, 
, 0x5f, 0x32, 0x2f, 0x4d, 0x61, 0x78, 0x50, 0x6f, 0x6f, 0x6c, 0x32, 0x64, 
, 0x00, 0x00, 0x00, 0x00, 0x04, 0x00, 0x00, 0x00, 0x01, 0x00, 0x00, 0x00, 
, 0x08, 0x00, 0x00, 0x00, 0x03, 0x00, 0x00, 0x00, 0x10, 0x00, 0x00, 0x00, 
, 0x42, 0xf0, 0xff, 0xff, 0x00, 0x00, 0x00, 0x01, 0x18, 0x00, 0x00, 0x00, 
, 0x28, 0x00, 0x00, 0x00, 0x48, 0x00, 0x00, 0x00, 0x12, 0x00, 0x00, 0x00, 
, 0x00, 0x00, 0x00, 0x09, 0xc0, 0x00, 0x00, 0x00, 0x04, 0x00, 0x00, 0x00, 
, 0xff, 0xff, 0xff, 0xff, 0x10, 0x00, 0x00, 0x00, 0x06, 0x00, 0x00, 0x00, 
, 0x10, 0x00, 0x00, 0x00, 0x2c, 0xf0, 0xff, 0xff, 0x08, 0x00, 0x00, 0x00, 
, 0x14, 0x00, 0x00, 0x00, 0x01, 0x00, 0x00, 0x00, 0x80, 0xff, 0xff, 0xff, 
, 0xff, 0xff, 0xff, 0xff, 0x00, 0x00, 0x00, 0x00, 0x01, 0x00, 0x00, 0x00, 
, 0x42, 0xd0, 0xe4, 0x3f, 0x7e, 0x00, 0x00, 0x00, 0x73, 0x65, 0x71, 0x75, 
, 0x65, 0x6e, 0x74, 0x69, 0x61, 0x6c, 0x5f, 0x31, 0x2f, 0x73, 0x65, 0x70, 
, 0x61, 0x72, 0x61, 0x62, 0x6c, 0x65, 0x5f, 0x63, 0x6f, 0x6e, 0x76, 0x32, 
, 0x64, 0x5f, 0x31, 0x2f, 0x52, 0x65, 0x6c, 0x75, 0x3b, 0x73, 0x65, 0x71, 
, 0x75, 0x65, 0x6e, 0x74, 0x69, 0x61, 0x6c, 0x5f, 0x31, 0x2f, 0x73, 0x65, 
, 0x70, 0x61, 0x72, 0x61, 0x62, 0x6c, 0x65, 0x5f, 0x63, 0x6f, 0x6e, 0x76, 
, 0x32, 0x64, 0x5f, 0x31, 0x2f, 0x42, 0x69, 0x61, 0x73, 0x41, 0x64, 0x64, 
, 0x3b, 0x73, 0x65, 0x71, 0x75, 0x65, 0x6e, 0x74, 0x69, 0x61, 0x6c, 0x5f, 
, 0x31, 0x2f, 0x73, 0x65, 0x70, 0x61, 0x72, 0x61, 0x62, 0x6c, 0x65, 0x5f, 
, 0x63, 0x6f, 0x6e, 0x76, 0x32, 0x64, 0x5f, 0x31, 0x2f, 0x73, 0x65, 0x70, 
, 0x61, 0x72, 0x61, 0x62, 0x6c, 0x65, 0x5f, 0x63, 0x6f, 0x6e, 0x76, 0x32, 
, 0x64, 0x3b, 0x00, 0x00, 0x04, 0x00, 0x00, 0x00, 0x01, 0x00, 0x00, 0x00, 
, 0x10, 0x00, 0x00, 0x00, 0x06, 0x00, 0x00, 0x00, 0x10, 0x00, 0x00, 0x00, 
, 0x32, 0xf1, 0xff, 0xff, 0x00, 0x00, 0x00, 0x01, 0x18, 0x00, 0x00, 0x00, 
, 0x28, 0x00, 0x00, 0x00, 0x44, 0x00, 0x00, 0x00, 0x11, 0x00, 0x00, 0x00, 
, 0x00, 0x00, 0x00, 0x09, 0x78, 0x00, 0x00, 0x00, 0x04, 0x00, 0x00, 0x00, 
, 0xff, 0xff, 0xff, 0xff, 0x10, 0x00, 0x00, 0x00, 0x06, 0x00, 0x00, 0x00, 
, 0x08, 0x00, 0x00, 0x00, 0x1c, 0xf1, 0xff, 0xff, 0x08, 0x00, 0x00, 0x00, 
, 0x10, 0x00, 0x00, 0x00, 0x01, 0x00, 0x00, 0x00, 0xf7, 0xff, 0xff, 0xff, 
, 0xff, 0xff, 0xff, 0xff, 0x01, 0x00, 0x00, 0x00, 0x4d, 0xa4, 0x19, 0x40, 
, 0x3a, 0x00, 0x00, 0x00, 0x73, 0x65, 0x71, 0x75, 0x65, 0x6e, 0x74, 0x69, 
, 0x61, 0x6c, 0x5f, 0x31, 0x2f, 0x73, 0x65, 0x70, 0x61, 0x72, 0x61, 0x62, 
, 0x6c, 0x65, 0x5f, 0x63, 0x6f, 0x6e, 0x76, 0x32, 0x64, 0x5f, 0x31, 0x2f, 
, 0x73, 0x65, 0x70, 0x61, 0x72, 0x61, 0x62, 0x6c, 0x65, 0x5f, 0x63, 0x6f, 
, 0x6e, 0x76, 0x32, 0x64, 0x2f, 0x64, 0x65, 0x70, 0x74, 0x68, 0x77, 0x69, 
, 0x73, 0x65, 0x00, 0x00, 0x04, 0x00, 0x00, 0x00, 0x01, 0x00, 0x00, 0x00, 
, 0x10, 0x00, 0x00, 0x00, 0x06, 0x00, 0x00, 0x00, 0x08, 0x00, 0x00, 0x00, 
, 0xda, 0xf1, 0xff, 0xff, 0x00, 0x00, 0x00, 0x01, 0x18, 0x00, 0x00, 0x00, 
, 0x28, 0x00, 0x00, 0x00, 0x48, 0x00, 0x00, 0x00, 0x10, 0x00, 0x00, 0x00, 
, 0x00, 0x00, 0x00, 0x09, 0x68, 0x00, 0x00, 0x00, 0x04, 0x00, 0x00, 0x00, 
, 0xff, 0xff, 0xff, 0xff, 0x10, 0x00, 0x00, 0x00, 0x06, 0x00, 0x00, 0x00, 
, 0x08, 0x00, 0x00, 0x00, 0xc4, 0xf1, 0xff, 0xff, 0x08, 0x00, 0x00, 0x00, 
, 0x14, 0x00, 0x00, 0x00, 0x01, 0x00, 0x00, 0x00, 0x80, 0xff, 0xff, 0xff, 
, 0xff, 0xff, 0xff, 0xff, 0x00, 0x00, 0x00, 0x00, 0x01, 0x00, 0x00, 0x00, 
, 0x08, 0x7e, 0x24, 0x40, 0x26, 0x00, 0x00, 0x00, 0x73, 0x65, 0x71, 0x75, 
, 0x65, 0x6e, 0x74, 0x69, 0x61, 0x6c, 0x5f, 0x31, 0x2f, 0x6d, 0x61, 0x78, 
, 0x5f, 0x70, 0x6f, 0x6f, 0x6c, 0x69, 0x6e, 0x67, 0x32, 0x64, 0x5f, 0x31, 
, 0x2f, 0x4d, 0x61, 0x78, 0x50, 0x6f, 0x6f, 0x6c, 0x32, 0x64, 0x00, 0x00, 
, 0x04, 0x00, 0x00, 0x00, 0x01, 0x00, 0x00, 0x00, 0x10, 0x00, 0x00, 0x00, 
, 0x06, 0x00, 0x00, 0x00, 0x08, 0x00, 0x00, 0x00, 0x72, 0xf2, 0xff, 0xff, 
, 0x00, 0x00, 0x00, 0x01, 0x18, 0x00, 0x00, 0x00, 0x28, 0x00, 0x00, 0x00, 
, 0x48, 0x00, 0x00, 0x00, 0x0f, 0x00, 0x00, 0x00, 0x00, 0x00, 0x00, 0x09, 
, 0xa0, 0x00, 0x00, 0x00, 0x04, 0x00, 0x00, 0x00, 0xff, 0xff, 0xff, 0xff, 
, 0x20, 0x00, 0x00, 0x00, 0x0d, 0x00, 0x00, 0x00, 0x08, 0x00, 0x00, 0x00, 
, 0x5c, 0xf2, 0xff, 0xff, 0x08, 0x00, 0x00, 0x00, 0x14, 0x00, 0x00, 0x00, 
, 0x01, 0x00, 0x00, 0x00, 0x80, 0xff, 0xff, 0xff, 0xff, 0xff, 0xff, 0xff, 
, 0x00, 0x00, 0x00, 0x00, 0x01, 0x00, 0x00, 0x00, 0x08, 0x7e, 0x24, 0x40, 
, 0x5c, 0x00, 0x00, 0x00, 0x73, 0x65, 0x71, 0x75, 0x65, 0x6e, 0x74, 0x69, 
, 0x61, 0x6c, 0x5f, 0x31, 0x2f, 0x63, 0x6f, 0x6e, 0x76, 0x32, 0x64, 0x5f, 
, 0x31, 0x2f, 0x52, 0x65, 0x6c, 0x75, 0x3b, 0x73, 0x65, 0x71, 0x75, 0x65, 
, 0x6e, 0x74, 0x69, 0x61, 0x6c, 0x5f, 0x31, 0x2f, 0x63, 0x6f, 0x6e, 0x76, 
, 0x32, 0x64, 0x5f, 0x31, 0x2f, 0x42, 0x69, 0x61, 0x73, 0x41, 0x64, 0x64, 
, 0x3b, 0x73, 0x65, 0x71, 0x75, 0x65, 0x6e, 0x74, 0x69, 0x61, 0x6c, 0x5f, 
, 0x31, 0x2f, 0x63, 0x6f, 0x6e, 0x76, 0x32, 0x64, 0x5f, 0x31, 0x2f, 0x63, 
, 0x6f, 0x6e, 0x76, 0x6f, 0x6c, 0x75, 0x74, 0x69, 0x6f, 0x6e, 0x3b, 0x31, 
, 0x00, 0x00, 0x00, 0x00, 0x04, 0x00, 0x00, 0x00, 0x01, 0x00, 0x00, 0x00, 
, 0x20, 0x00, 0x00, 0x00, 0x0d, 0x00, 0x00, 0x00, 0x08, 0x00, 0x00, 0x00, 
, 0x9a, 0xf3, 0xff, 0xff, 0x00, 0x00, 0x00, 0x01, 0x14, 0x00, 0x00, 0x00, 
, 0x88, 0x00, 0x00, 0x00, 0x0e, 0x00, 0x00, 0x00, 0x00, 0x00, 0x00, 0x09, 
, 0x94, 0x00, 0x00, 0x00, 0x14, 0xf3, 0xff, 0xff, 0x08, 0x00, 0x00, 0x00, 
, 0x4c, 0x00, 0x00, 0x00, 0x08, 0x00, 0x00, 0x00, 0x00, 0x00, 0x00, 0x00, 
, 0x00, 0x00, 0x00, 0x00, 0x00, 0x00, 0x00, 0x00, 0x00, 0x00, 0x00, 0x00, 
, 0x00, 0x00, 0x00, 0x00, 0x00, 0x00, 0x00, 0x00, 0x00, 0x00, 0x00, 0x00, 
, 0x00, 0x00, 0x00, 0x00, 0x00, 0x00, 0x00, 0x00, 0x00, 0x00, 0x00, 0x00, 
, 0x00, 0x00, 0x00, 0x00, 0x00, 0x00, 0x00, 0x00, 0x00, 0x00, 0x00, 0x00, 
, 0x00, 0x00, 0x00, 0x00, 0x00, 0x00, 0x00, 0x00, 0x00, 0x00, 0x00, 0x00, 
, 0x00, 0x00, 0x00, 0x00, 0x08, 0x00, 0x00, 0x00, 0x58, 0xdf, 0x74, 0x3b, 
, 0x71, 0xd8, 0x3c, 0x3b, 0x8e, 0xe9, 0x72, 0x3b, 0x79, 0x5f, 0x6f, 0x3b, 
, 0xa9, 0x8b, 0x1e, 0x3b, 0xb0, 0x94, 0x22, 0x3b, 0xfe, 0x49, 0x15, 0x3b, 
, 0x31, 0xe0, 0x09, 0x3b, 0x13, 0x00, 0x00, 0x00, 0x74, 0x66, 0x6c, 0x2e, 
, 0x70, 0x73, 0x65, 0x75, 0x64, 0x6f, 0x5f, 0x71, 0x63, 0x6f, 0x6e, 0x73, 
, 0x74, 0x31, 0x31, 0x00, 0x04, 0x00, 0x00, 0x00, 0x08, 0x00, 0x00, 0x00, 
, 0x03, 0x00, 0x00, 0x00, 0x03, 0x00, 0x00, 0x00, 0x01, 0x00, 0x00, 0x00, 
, 0x5a, 0xf4, 0xff, 0xff, 0x00, 0x00, 0x00, 0x01, 0x14, 0x00, 0x00, 0x00, 
, 0x88, 0x00, 0x00, 0x00, 0x0d, 0x00, 0x00, 0x00, 0x00, 0x00, 0x00, 0x02, 
, 0x94, 0x00, 0x00, 0x00, 0xd4, 0xf3, 0xff, 0xff, 0x08, 0x00, 0x00, 0x00, 
, 0x4c, 0x00, 0x00, 0x00, 0x08, 0x00, 0x00, 0x00, 0x00, 0x00, 0x00, 0x00, 
, 0x00, 0x00, 0x00, 0x00, 0x00, 0x00, 0x00, 0x00, 0x00, 0x00, 0x00, 0x00, 
, 0x00, 0x00, 0x00, 0x00, 0x00, 0x00, 0x00, 0x00, 0x00, 0x00, 0x00, 0x00, 
, 0x00, 0x00, 0x00, 0x00, 0x00, 0x00, 0x00, 0x00, 0x00, 0x00, 0x00, 0x00, 
, 0x00, 0x00, 0x00, 0x00, 0x00, 0x00, 0x00, 0x00, 0x00, 0x00, 0x00, 0x00, 
, 0x00, 0x00, 0x00, 0x00, 0x00, 0x00, 0x00, 0x00, 0x00, 0x00, 0x00, 0x00, 
, 0x00, 0x00, 0x00, 0x00, 0x08, 0x00, 0x00, 0x00, 0xc6, 0xfe, 0x8d, 0x3c, 
, 0x64, 0x03, 0x5b, 0x3c, 0xcd, 0xdb, 0x8c, 0x3c, 0x63, 0xce, 0x8a, 0x3c, 
, 0x7a, 0xdf, 0x37, 0x3c, 0x87, 0x8d, 0x3c, 0x3c, 0x42, 0x23, 0x2d, 0x3c, 
, 0xb4, 0xe6, 0x1f, 0x3c, 0x13, 0x00, 0x00, 0x00, 0x74, 0x66, 0x6c, 0x2e, 
, 0x70, 0x73, 0x65, 0x75, 0x64, 0x6f, 0x5f, 0x71, 0x63, 0x6f, 0x6e, 0x73, 
, 0x74, 0x31, 0x30, 0x00, 0x01, 0x00, 0x00, 0x00, 0x08, 0x00, 0x00, 0x00, 
, 0x0e, 0xf5, 0xff, 0xff, 0x00, 0x00, 0x00, 0x01, 0x14, 0x00, 0x00, 0x00, 
, 0x8c, 0x00, 0x00, 0x00, 0x0c, 0x00, 0x00, 0x00, 0x00, 0x00, 0x00, 0x09, 
, 0x98, 0x00, 0x00, 0x00, 0x42, 0xfc, 0xff, 0xff, 0x03, 0x00, 0x00, 0x00, 
, 0x08, 0x00, 0x00, 0x00, 0x4c, 0x00, 0x00, 0x00, 0x08, 0x00, 0x00, 0x00, 
, 0x00, 0x00, 0x00, 0x00, 0x00, 0x00, 0x00, 0x00, 0x00, 0x00, 0x00, 0x00, 
, 0x00, 0x00, 0x00, 0x00, 0x00, 0x00, 0x00, 0x00, 0x00, 0x00, 0x00, 0x00, 
, 0x00, 0x00, 0x00, 0x00, 0x00, 0x00, 0x00, 0x00, 0x00, 0x00, 0x00, 0x00, 
, 0x00, 0x00, 0x00, 0x00, 0x00, 0x00, 0x00, 0x00, 0x00, 0x00, 0x00, 0x00, 
, 0x00, 0x00, 0x00, 0x00, 0x00, 0x00, 0x00, 0x00, 0x00, 0x00, 0x00, 0x00, 
, 0x00, 0x00, 0x00, 0x00, 0x00, 0x00, 0x00, 0x00, 0x08, 0x00, 0x00, 0x00, 
, 0xb5, 0xf7, 0x16, 0x3b, 0x38, 0x93, 0x48, 0x3b, 0x1e, 0x8a, 0x0b, 0x3b, 
, 0x9a, 0x1a, 0x1d, 0x3b, 0xf9, 0x64, 0x23, 0x3b, 0xac, 0xaa, 0x5f, 0x3b, 
, 0x96, 0x2e, 0x46, 0x3b, 0x35, 0xcd, 0x1c, 0x3b, 0x12, 0x00, 0x00, 0x00, 
, 0x74, 0x66, 0x6c, 0x2e, 0x70, 0x73, 0x65, 0x75, 0x64, 0x6f, 0x5f, 0x71, 
, 0x63, 0x6f, 0x6e, 0x73, 0x74, 0x39, 0x00, 0x00, 0x04, 0x00, 0x00, 0x00, 
, 0x01, 0x00, 0x00, 0x00, 0x03, 0x00, 0x00, 0x00, 0x03, 0x00, 0x00, 0x00, 
, 0x08, 0x00, 0x00, 0x00, 0xd2, 0xf5, 0xff, 0xff, 0x00, 0x00, 0x00, 0x01, 
, 0x14, 0x00, 0x00, 0x00, 0x84, 0x00, 0x00, 0x00, 0x0b, 0x00, 0x00, 0x00, 
, 0x00, 0x00, 0x00, 0x02, 0x90, 0x00, 0x00, 0x00, 0x4c, 0xf5, 0xff, 0xff, 
, 0x08, 0x00, 0x00, 0x00, 0x48, 0x00, 0x00, 0x00, 0x08, 0x00, 0x00, 0x00, 
, 0x00, 0x00, 0x00, 0x00, 0x00, 0x00, 0x00, 0x00, 0x00, 0x00, 0x00, 0x00, 
, 0x00, 0x00, 0x00, 0x00, 0x00, 0x00, 0x00, 0x00, 0x00, 0x00, 0x00, 0x00, 
, 0x00, 0x00, 0x00, 0x00, 0x00, 0x00, 0x00, 0x00, 0x00, 0x00, 0x00, 0x00, 
, 0x00, 0x00, 0x00, 0x00, 0x00, 0x00, 0x00, 0x00, 0x00, 0x00, 0x00, 0x00, 
, 0x00, 0x00, 0x00, 0x00, 0x00, 0x00, 0x00, 0x00, 0x00, 0x00, 0x00, 0x00, 
, 0x00, 0x00, 0x00, 0x00, 0x08, 0x00, 0x00, 0x00, 0x05, 0x02, 0xc2, 0x3b, 
, 0x0f, 0xe1, 0x00, 0x3c, 0x5b, 0x52, 0xb3, 0x3b, 0xc5, 0xe4, 0xc9, 0x3b, 
, 0x41, 0xfa, 0xd1, 0x3b, 0x73, 0xb7, 0x0f, 0x3c, 0xd2, 0xae, 0xfe, 0x3b, 
, 0x50, 0x81, 0xc9, 0x3b, 0x12, 0x00, 0x00, 0x00, 0x74, 0x66, 0x6c, 0x2e, 
, 0x70, 0x73, 0x65, 0x75, 0x64, 0x6f, 0x5f, 0x71, 0x63, 0x6f, 0x6e, 0x73, 
, 0x74, 0x38, 0x00, 0x00, 0x01, 0x00, 0x00, 0x00, 0x08, 0x00, 0x00, 0x00, 
, 0x82, 0xf6, 0xff, 0xff, 0x00, 0x00, 0x00, 0x01, 0x14, 0x00, 0x00, 0x00, 
, 0xe8, 0x00, 0x00, 0x00, 0x0a, 0x00, 0x00, 0x00, 0x00, 0x00, 0x00, 0x09, 
, 0xf4, 0x00, 0x00, 0x00, 0xfc, 0xf5, 0xff, 0xff, 0x08, 0x00, 0x00, 0x00, 
, 0x8c, 0x00, 0x00, 0x00, 0x10, 0x00, 0x00, 0x00, 0x00, 0x00, 0x00, 0x00, 
, 0x00, 0x00, 0x00, 0x00, 0x00, 0x00, 0x00, 0x00, 0x00, 0x00, 0x00, 0x00, 
, 0x00, 0x00, 0x00, 0x00, 0x00, 0x00, 0x00, 0x00, 0x00, 0x00, 0x00, 0x00, 
, 0x00, 0x00, 0x00, 0x00, 0x00, 0x00, 0x00, 0x00, 0x00, 0x00, 0x00, 0x00, 
, 0x00, 0x00, 0x00, 0x00, 0x00, 0x00, 0x00, 0x00, 0x00, 0x00, 0x00, 0x00, 
, 0x00, 0x00, 0x00, 0x00, 0x00, 0x00, 0x00, 0x00, 0x00, 0x00, 0x00, 0x00, 
, 0x00, 0x00, 0x00, 0x00, 0x00, 0x00, 0x00, 0x00, 0x00, 0x00, 0x00, 0x00, 
, 0x00, 0x00, 0x00, 0x00, 0x00, 0x00, 0x00, 0x00, 0x00, 0x00, 0x00, 0x00, 
, 0x00, 0x00, 0x00, 0x00, 0x00, 0x00, 0x00, 0x00, 0x00, 0x00, 0x00, 0x00, 
, 0x00, 0x00, 0x00, 0x00, 0x00, 0x00, 0x00, 0x00, 0x00, 0x00, 0x00, 0x00, 
, 0x00, 0x00, 0x00, 0x00, 0x00, 0x00, 0x00, 0x00, 0x00, 0x00, 0x00, 0x00, 
, 0x00, 0x00, 0x00, 0x00, 0x00, 0x00, 0x00, 0x00, 0x10, 0x00, 0x00, 0x00, 
, 0xb1, 0xf7, 0x95, 0x3b, 0xf7, 0x71, 0x8d, 0x3b, 0x6e, 0x13, 0x8f, 0x3b, 
, 0xbb, 0xa8, 0x30, 0x3b, 0x94, 0xe3, 0xa2, 0x3b, 0x1f, 0xc5, 0x75, 0x3b, 
, 0x1a, 0x67, 0x31, 0x3b, 0xad, 0xde, 0x6c, 0x3b, 0xbe, 0x41, 0xbb, 0x3b, 
, 0xaa, 0x63, 0xa7, 0x3b, 0x61, 0x1c, 0xa3, 0x3b, 0x14, 0x81, 0x53, 0x3b, 
, 0x85, 0x9f, 0xa6, 0x3b, 0xae, 0x91, 0xd6, 0x3b, 0x2b, 0x79, 0x98, 0x3b, 
, 0xd7, 0xf9, 0x82, 0x3b, 0x12, 0x00, 0x00, 0x00, 0x74, 0x66, 0x6c, 0x2e, 
, 0x70, 0x73, 0x65, 0x75, 0x64, 0x6f, 0x5f, 0x71, 0x63, 0x6f, 0x6e, 0x73, 
, 0x74, 0x37, 0x00, 0x00, 0x04, 0x00, 0x00, 0x00, 0x10, 0x00, 0x00, 0x00, 
, 0x01, 0x00, 0x00, 0x00, 0x01, 0x00, 0x00, 0x00, 0x08, 0x00, 0x00, 0x00, 
, 0xa2, 0xf7, 0xff, 0xff, 0x00, 0x00, 0x00, 0x01, 0x14, 0x00, 0x00, 0x00, 
, 0xe4, 0x00, 0x00, 0x00, 0x09, 0x00, 0x00, 0x00, 0x00, 0x00, 0x00, 0x02, 
, 0xf0, 0x00, 0x00, 0x00, 0x1c, 0xf7, 0xff, 0xff, 0x08, 0x00, 0x00, 0x00, 
, 0x88, 0x00, 0x00, 0x00, 0x10, 0x00, 0x00, 0x00, 0x00, 0x00, 0x00, 0x00, 
, 0x00, 0x00, 0x00, 0x00, 0x00, 0x00, 0x00, 0x00, 0x00, 0x00, 0x00, 0x00, 
, 0x00, 0x00, 0x00, 0x00, 0x00, 0x00, 0x00, 0x00, 0x00, 0x00, 0x00, 0x00, 
, 0x00, 0x00, 0x00, 0x00, 0x00, 0x00, 0x00, 0x00, 0x00, 0x00, 0x00, 0x00, 
, 0x00, 0x00, 0x00, 0x00, 0x00, 0x00, 0x00, 0x00, 0x00, 0x00, 0x00, 0x00, 
, 0x00, 0x00, 0x00, 0x00, 0x00, 0x00, 0x00, 0x00, 0x00, 0x00, 0x00, 0x00, 
, 0x00, 0x00, 0x00, 0x00, 0x00, 0x00, 0x00, 0x00, 0x00, 0x00, 0x00, 0x00, 
, 0x00, 0x00, 0x00, 0x00, 0x00, 0x00, 0x00, 0x00, 0x00, 0x00, 0x00, 0x00, 
, 0x00, 0x00, 0x00, 0x00, 0x00, 0x00, 0x00, 0x00, 0x00, 0x00, 0x00, 0x00, 
, 0x00, 0x00, 0x00, 0x00, 0x00, 0x00, 0x00, 0x00, 0x00, 0x00, 0x00, 0x00, 
, 0x00, 0x00, 0x00, 0x00, 0x00, 0x00, 0x00, 0x00, 0x00, 0x00, 0x00, 0x00, 
, 0x00, 0x00, 0x00, 0x00, 0x10, 0x00, 0x00, 0x00, 0x91, 0x02, 0x34, 0x3c, 
, 0xc8, 0xc7, 0x29, 0x3c, 0xe0, 0xbc, 0x2b, 0x3c, 0x72, 0x0c, 0xd4, 0x3b, 
, 0x1c, 0x85, 0x43, 0x3c, 0x8c, 0x80, 0x13, 0x3c, 0xf4, 0xf0, 0xd4, 0x3b, 
, 0x1b, 0x29, 0x0e, 0x3c, 0xf2, 0xc4, 0x60, 0x3c, 0xfe, 0xeb, 0x48, 0x3c, 
, 0x4a, 0xc9, 0x43, 0x3c, 0xc7, 0xdf, 0xfd, 0x3b, 0x8e, 0x00, 0x48, 0x3c, 
, 0xc7, 0xc6, 0x80, 0x3c, 0x8c, 0x04, 0x37, 0x3c, 0xc2, 0x36, 0x1d, 0x3c, 
, 0x12, 0x00, 0x00, 0x00, 0x74, 0x66, 0x6c, 0x2e, 0x70, 0x73, 0x65, 0x75, 
, 0x64, 0x6f, 0x5f, 0x71, 0x63, 0x6f, 0x6e, 0x73, 0x74, 0x36, 0x00, 0x00, 
, 0x01, 0x00, 0x00, 0x00, 0x10, 0x00, 0x00, 0x00, 0x00, 0x00, 0x16, 0x00, 
, 0x1e, 0x00, 0x18, 0x00, 0x17, 0x00, 0x10, 0x00, 0x0c, 0x00, 0x08, 0x00, 
, 0x00, 0x00, 0x00, 0x00, 0x00, 0x00, 0x07, 0x00, 0x16, 0x00, 0x00, 0x00, 
, 0x00, 0x00, 0x00, 0x01, 0x28, 0x00, 0x00, 0x00, 0x00, 0x01, 0x00, 0x00, 
, 0x08, 0x00, 0x00, 0x00, 0x00, 0x00, 0x00, 0x09, 0x0c, 0x01, 0x00, 0x00, 
, 0x00, 0x00, 0x12, 0x00, 0x10, 0x00, 0x00, 0x00, 0x00, 0x00, 0x0c, 0x00, 
, 0x08, 0x00, 0x00, 0x00, 0x00, 0x00, 0x04, 0x00, 0x12, 0x00, 0x00, 0x00, 
, 0x03, 0x00, 0x00, 0x00, 0x08, 0x00, 0x00, 0x00, 0x8c, 0x00, 0x00, 0x00, 
, 0x10, 0x00, 0x00, 0x00, 0x00, 0x00, 0x00, 0x00, 0x00, 0x00, 0x00, 0x00, 
, 0x00, 0x00, 0x00, 0x00, 0x00, 0x00, 0x00, 0x00, 0x00, 0x00, 0x00, 0x00, 
, 0x00, 0x00, 0x00, 0x00, 0x00, 0x00, 0x00, 0x00, 0x00, 0x00, 0x00, 0x00, 
, 0x00, 0x00, 0x00, 0x00, 0x00, 0x00, 0x00, 0x00, 0x00, 0x00, 0x00, 0x00, 
, 0x00, 0x00, 0x00, 0x00, 0x00, 0x00, 0x00, 0x00, 0x00, 0x00, 0x00, 0x00, 
, 0x00, 0x00, 0x00, 0x00, 0x00, 0x00, 0x00, 0x00, 0x00, 0x00, 0x00, 0x00, 
, 0x00, 0x00, 0x00, 0x00, 0x00, 0x00, 0x00, 0x00, 0x00, 0x00, 0x00, 0x00, 
, 0x00, 0x00, 0x00, 0x00, 0x00, 0x00, 0x00, 0x00, 0x00, 0x00, 0x00, 0x00, 
, 0x00, 0x00, 0x00, 0x00, 0x00, 0x00, 0x00, 0x00, 0x00, 0x00, 0x00, 0x00, 
, 0x00, 0x00, 0x00, 0x00, 0x00, 0x00, 0x00, 0x00, 0x00, 0x00, 0x00, 0x00, 
, 0x00, 0x00, 0x00, 0x00, 0x00, 0x00, 0x00, 0x00, 0x00, 0x00, 0x00, 0x00, 
, 0x00, 0x00, 0x00, 0x00, 0x10, 0x00, 0x00, 0x00, 0xa5, 0x7a, 0x25, 0x3b, 
, 0xf3, 0xdc, 0x96, 0x3b, 0x6b, 0x29, 0xf4, 0x3a, 0xcb, 0x4a, 0x86, 0x3a, 
, 0x6f, 0x8b, 0x2a, 0x3b, 0x58, 0x7c, 0xdc, 0x3a, 0x64, 0x3a, 0xe7, 0x3a, 
, 0x6a, 0xa2, 0x16, 0x3b, 0xfc, 0x3a, 0x79, 0x3b, 0x10, 0x53, 0x54, 0x3b, 
, 0xff, 0x29, 0xd0, 0x3a, 0xdd, 0x07, 0x36, 0x3b, 0xae, 0xce, 0x0b, 0x3b, 
, 0x3c, 0x4b, 0x83, 0x3b, 0x8f, 0x73, 0xf5, 0x3a, 0x7a, 0xd0, 0xc6, 0x3a, 
, 0x12, 0x00, 0x00, 0x00, 0x74, 0x66, 0x6c, 0x2e, 0x70, 0x73, 0x65, 0x75, 
, 0x64, 0x6f, 0x5f, 0x71, 0x63, 0x6f, 0x6e, 0x73, 0x74, 0x35, 0x00, 0x00, 
, 0x04, 0x00, 0x00, 0x00, 0x01, 0x00, 0x00, 0x00, 0x03, 0x00, 0x00, 0x00, 
, 0x03, 0x00, 0x00, 0x00, 0x10, 0x00, 0x00, 0x00, 0x02, 0xfa, 0xff, 0xff, 
, 0x00, 0x00, 0x00, 0x01, 0x14, 0x00, 0x00, 0x00, 0xe4, 0x00, 0x00, 0x00, 
, 0x07, 0x00, 0x00, 0x00, 0x00, 0x00, 0x00, 0x02, 0xf0, 0x00, 0x00, 0x00, 
, 0x7c, 0xf9, 0xff, 0xff, 0x08, 0x00, 0x00, 0x00, 0x88, 0x00, 0x00, 0x00, 
, 0x10, 0x00, 0x00, 0x00, 0x00, 0x00, 0x00, 0x00, 0x00, 0x00, 0x00, 0x00, 
, 0x00, 0x00, 0x00, 0x00, 0x00, 0x00, 0x00, 0x00, 0x00, 0x00, 0x00, 0x00, 
, 0x00, 0x00, 0x00, 0x00, 0x00, 0x00, 0x00, 0x00, 0x00, 0x00, 0x00, 0x00, 
, 0x00, 0x00, 0x00, 0x00, 0x00, 0x00, 0x00, 0x00, 0x00, 0x00, 0x00, 0x00, 
, 0x00, 0x00, 0x00, 0x00, 0x00, 0x00, 0x00, 0x00, 0x00, 0x00, 0x00, 0x00, 
, 0x00, 0x00, 0x00, 0x00, 0x00, 0x00, 0x00, 0x00, 0x00, 0x00, 0x00, 0x00, 
, 0x00, 0x00, 0x00, 0x00, 0x00, 0x00, 0x00, 0x00, 0x00, 0x00, 0x00, 0x00, 
, 0x00, 0x00, 0x00, 0x00, 0x00, 0x00, 0x00, 0x00, 0x00, 0x00, 0x00, 0x00, 
, 0x00, 0x00, 0x00, 0x00, 0x00, 0x00, 0x00, 0x00, 0x00, 0x00, 0x00, 0x00, 
, 0x00, 0x00, 0x00, 0x00, 0x00, 0x00, 0x00, 0x00, 0x00, 0x00, 0x00, 0x00, 
, 0x00, 0x00, 0x00, 0x00, 0x00, 0x00, 0x00, 0x00, 0x00, 0x00, 0x00, 0x00, 
, 0x10, 0x00, 0x00, 0x00, 0xd9, 0xe7, 0x93, 0x3b, 0x83, 0xd7, 0x06, 0x3c, 
, 0x84, 0x3b, 0x5a, 0x3b, 0xb8, 0x0f, 0xf0, 0x3a, 0xec, 0x6e, 0x98, 0x3b, 
, 0x1c, 0x12, 0x45, 0x3b, 0x1c, 0xac, 0x4e, 0x3b, 0x31, 0xa3, 0x86, 0x3b, 
, 0x49, 0xc3, 0xde, 0x3b, 0xb4, 0xc6, 0xbd, 0x3b, 0xbf, 0x0e, 0x3a, 0x3b, 
, 0x16, 0xb3, 0xa2, 0x3b, 0x9e, 0xeb, 0x79, 0x3b, 0xa1, 0xb3, 0xea, 0x3b, 
, 0x99, 0x62, 0x5b, 0x3b, 0x69, 0xb3, 0x31, 0x3b, 0x12, 0x00, 0x00, 0x00, 
, 0x74, 0x66, 0x6c, 0x2e, 0x70, 0x73, 0x65, 0x75, 0x64, 0x6f, 0x5f, 0x71, 
, 0x63, 0x6f, 0x6e, 0x73, 0x74, 0x34, 0x00, 0x00, 0x01, 0x00, 0x00, 0x00, 
, 0x10, 0x00, 0x00, 0x00, 0x12, 0xfb, 0xff, 0xff, 0x00, 0x00, 0x00, 0x01, 
, 0x14, 0x00, 0x00, 0x00, 0xa8, 0x01, 0x00, 0x00, 0x06, 0x00, 0x00, 0x00, 
, 0x00, 0x00, 0x00, 0x09, 0xb4, 0x01, 0x00, 0x00, 0x8c, 0xfa, 0xff, 0xff, 
, 0x08, 0x00, 0x00, 0x00, 0x0c, 0x01, 0x00, 0x00, 0x20, 0x00, 0x00, 0x00, 
, 0x00, 0x00, 0x00, 0x00, 0x00, 0x00, 0x00, 0x00, 0x00, 0x00, 0x00, 0x00, 
, 0x00, 0x00, 0x00, 0x00, 0x00, 0x00, 0x00, 0x00, 0x00, 0x00, 0x00, 0x00, 
, 0x00, 0x00, 0x00, 0x00, 0x00, 0x00, 0x00, 0x00, 0x00, 0x00, 0x00, 0x00, 
, 0x00, 0x00, 0x00, 0x00, 0x00, 0x00, 0x00, 0x00, 0x00, 0x00, 0x00, 0x00, 
, 0x00, 0x00, 0x00, 0x00, 0x00, 0x00, 0x00, 0x00, 0x00, 0x00, 0x00, 0x00, 
, 0x00, 0x00, 0x00, 0x00, 0x00, 0x00, 0x00, 0x00, 0x00, 0x00, 0x00, 0x00, 
, 0x00, 0x00, 0x00, 0x00, 0x00, 0x00, 0x00, 0x00, 0x00, 0x00, 0x00, 0x00, 
, 0x00, 0x00, 0x00, 0x00, 0x00, 0x00, 0x00, 0x00, 0x00, 0x00, 0x00, 0x00, 
, 0x00, 0x00, 0x00, 0x00, 0x00, 0x00, 0x00, 0x00, 0x00, 0x00, 0x00, 0x00, 
, 0x00, 0x00, 0x00, 0x00, 0x00, 0x00, 0x00, 0x00, 0x00, 0x00, 0x00, 0x00, 
, 0x00, 0x00, 0x00, 0x00, 0x00, 0x00, 0x00, 0x00, 0x00, 0x00, 0x00, 0x00, 
, 0x00, 0x00, 0x00, 0x00, 0x00, 0x00, 0x00, 0x00, 0x00, 0x00, 0x00, 0x00, 
, 0x00, 0x00, 0x00, 0x00, 0x00, 0x00, 0x00, 0x00, 0x00, 0x00, 0x00, 0x00, 
, 0x00, 0x00, 0x00, 0x00, 0x00, 0x00, 0x00, 0x00, 0x00, 0x00, 0x00, 0x00, 
, 0x00, 0x00, 0x00, 0x00, 0x00, 0x00, 0x00, 0x00, 0x00, 0x00, 0x00, 0x00, 
, 0x00, 0x00, 0x00, 0x00, 0x00, 0x00, 0x00, 0x00, 0x00, 0x00, 0x00, 0x00, 
, 0x00, 0x00, 0x00, 0x00, 0x00, 0x00, 0x00, 0x00, 0x00, 0x00, 0x00, 0x00, 
, 0x00, 0x00, 0x00, 0x00, 0x00, 0x00, 0x00, 0x00, 0x00, 0x00, 0x00, 0x00, 
, 0x00, 0x00, 0x00, 0x00, 0x00, 0x00, 0x00, 0x00, 0x00, 0x00, 0x00, 0x00, 
, 0x00, 0x00, 0x00, 0x00, 0x00, 0x00, 0x00, 0x00, 0x00, 0x00, 0x00, 0x00, 
, 0x00, 0x00, 0x00, 0x00, 0x00, 0x00, 0x00, 0x00, 0x00, 0x00, 0x00, 0x00, 
, 0x00, 0x00, 0x00, 0x00, 0x00, 0x00, 0x00, 0x00, 0x20, 0x00, 0x00, 0x00, 
, 0x8e, 0x01, 0x4f, 0x3b, 0x97, 0x15, 0x45, 0x3b, 0xfb, 0x8b, 0x57, 0x3b, 
, 0x14, 0xd5, 0x83, 0x3b, 0x37, 0x43, 0x23, 0x3b, 0xd4, 0xba, 0x6f, 0x3b, 
, 0x1c, 0x3f, 0x3a, 0x3b, 0xae, 0x87, 0xce, 0x3b, 0x66, 0xdc, 0x7c, 0x3b, 
, 0x5c, 0xde, 0xb3, 0x3b, 0xc4, 0x3b, 0x76, 0x3b, 0x6c, 0xfe, 0x7c, 0x3b, 
, 0x95, 0x8e, 0x7f, 0x3b, 0x05, 0x1a, 0x5d, 0x3b, 0x76, 0x15, 0xd3, 0x3b, 
, 0x0b, 0x65, 0x7d, 0x3b, 0x60, 0x56, 0x5a, 0x3b, 0xfa, 0x2a, 0x55, 0x3b, 
, 0xba, 0x31, 0x73, 0x3b, 0x00, 0xec, 0x4c, 0x3b, 0x5c, 0xc2, 0x7c, 0x3b, 
, 0x4c, 0xcf, 0x60, 0x3b, 0xe5, 0x28, 0x77, 0x3b, 0x74, 0xdd, 0xaf, 0x3b, 
, 0x7f, 0xc7, 0x70, 0x3b, 0x55, 0x86, 0x78, 0x3b, 0xfe, 0xed, 0x24, 0x3b, 
, 0x45, 0x26, 0xaa, 0x3b, 0xf0, 0x52, 0x8d, 0x3b, 0x9f, 0xb4, 0x6a, 0x3b, 
, 0x60, 0xee, 0x47, 0x3b, 0x4c, 0x0e, 0x7b, 0x3b, 0x12, 0x00, 0x00, 0x00, 
, 0x74, 0x66, 0x6c, 0x2e, 0x70, 0x73, 0x65, 0x75, 0x64, 0x6f, 0x5f, 0x71, 
, 0x63, 0x6f, 0x6e, 0x73, 0x74, 0x33, 0x00, 0x00, 0x04, 0x00, 0x00, 0x00, 
, 0x20, 0x00, 0x00, 0x00, 0x01, 0x00, 0x00, 0x00, 0x01, 0x00, 0x00, 0x00, 
, 0x10, 0x00, 0x00, 0x00, 0xf2, 0xfc, 0xff, 0xff, 0x00, 0x00, 0x00, 0x01, 
, 0x14, 0x00, 0x00, 0x00, 0xa4, 0x01, 0x00, 0x00, 0x05, 0x00, 0x00, 0x00, 
, 0x00, 0x00, 0x00, 0x02, 0xb0, 0x01, 0x00, 0x00, 0x6c, 0xfc, 0xff, 0xff, 
, 0x08, 0x00, 0x00, 0x00, 0x08, 0x01, 0x00, 0x00, 0x20, 0x00, 0x00, 0x00, 
, 0x00, 0x00, 0x00, 0x00, 0x00, 0x00, 0x00, 0x00, 0x00, 0x00, 0x00, 0x00, 
, 0x00, 0x00, 0x00, 0x00, 0x00, 0x00, 0x00, 0x00, 0x00, 0x00, 0x00, 0x00, 
, 0x00, 0x00, 0x00, 0x00, 0x00, 0x00, 0x00, 0x00, 0x00, 0x00, 0x00, 0x00, 
, 0x00, 0x00, 0x00, 0x00, 0x00, 0x00, 0x00, 0x00, 0x00, 0x00, 0x00, 0x00, 
, 0x00, 0x00, 0x00, 0x00, 0x00, 0x00, 0x00, 0x00, 0x00, 0x00, 0x00, 0x00, 
, 0x00, 0x00, 0x00, 0x00, 0x00, 0x00, 0x00, 0x00, 0x00, 0x00, 0x00, 0x00, 
, 0x00, 0x00, 0x00, 0x00, 0x00, 0x00, 0x00, 0x00, 0x00, 0x00, 0x00, 0x00, 
, 0x00, 0x00, 0x00, 0x00, 0x00, 0x00, 0x00, 0x00, 0x00, 0x00, 0x00, 0x00, 
, 0x00, 0x00, 0x00, 0x00, 0x00, 0x00, 0x00, 0x00, 0x00, 0x00, 0x00, 0x00, 
, 0x00, 0x00, 0x00, 0x00, 0x00, 0x00, 0x00, 0x00, 0x00, 0x00, 0x00, 0x00, 
, 0x00, 0x00, 0x00, 0x00, 0x00, 0x00, 0x00, 0x00, 0x00, 0x00, 0x00, 0x00, 
, 0x00, 0x00, 0x00, 0x00, 0x00, 0x00, 0x00, 0x00, 0x00, 0x00, 0x00, 0x00, 
, 0x00, 0x00, 0x00, 0x00, 0x00, 0x00, 0x00, 0x00, 0x00, 0x00, 0x00, 0x00, 
, 0x00, 0x00, 0x00, 0x00, 0x00, 0x00, 0x00, 0x00, 0x00, 0x00, 0x00, 0x00, 
, 0x00, 0x00, 0x00, 0x00, 0x00, 0x00, 0x00, 0x00, 0x00, 0x00, 0x00, 0x00, 
, 0x00, 0x00, 0x00, 0x00, 0x00, 0x00, 0x00, 0x00, 0x00, 0x00, 0x00, 0x00, 
, 0x00, 0x00, 0x00, 0x00, 0x00, 0x00, 0x00, 0x00, 0x00, 0x00, 0x00, 0x00, 
, 0x00, 0x00, 0x00, 0x00, 0x00, 0x00, 0x00, 0x00, 0x00, 0x00, 0x00, 0x00, 
, 0x00, 0x00, 0x00, 0x00, 0x00, 0x00, 0x00, 0x00, 0x00, 0x00, 0x00, 0x00, 
, 0x00, 0x00, 0x00, 0x00, 0x00, 0x00, 0x00, 0x00, 0x00, 0x00, 0x00, 0x00, 
, 0x00, 0x00, 0x00, 0x00, 0x00, 0x00, 0x00, 0x00, 0x00, 0x00, 0x00, 0x00, 
, 0x00, 0x00, 0x00, 0x00, 0x20, 0x00, 0x00, 0x00, 0xc8, 0xfe, 0xf7, 0x3a, 
, 0xe1, 0x1b, 0xec, 0x3a, 0x12, 0x1d, 0x01, 0x3b, 0xb7, 0xef, 0x1d, 0x3b, 
, 0x10, 0x97, 0xc3, 0x3a, 0x6b, 0x99, 0x0f, 0x3b, 0x07, 0x20, 0xdf, 0x3a, 
, 0xc6, 0x6c, 0x77, 0x3b, 0x04, 0x77, 0x17, 0x3b, 0xfa, 0x7b, 0x57, 0x3b, 
, 0xb9, 0x7e, 0x13, 0x3b, 0x65, 0x8b, 0x17, 0x3b, 0x70, 0x14, 0x19, 0x3b, 
, 0xe1, 0x70, 0x04, 0x3b, 0x64, 0xe1, 0x7c, 0x3b, 0xdd, 0xc8, 0x17, 0x3b, 
, 0xff, 0xc8, 0x02, 0x3b, 0x8c, 0x60, 0xff, 0x3a, 0xac, 0xac, 0x11, 0x3b, 
, 0x94, 0x7f, 0xf5, 0x3a, 0x6b, 0x67, 0x17, 0x3b, 0x80, 0xa9, 0x06, 0x3b, 
, 0xc4, 0x0c, 0x14, 0x3b, 0x21, 0xb0, 0x52, 0x3b, 0x5a, 0x3a, 0x10, 0x3b, 
, 0x14, 0xde, 0x14, 0x3b, 0x59, 0x96, 0xc5, 0x3a, 0x38, 0xd7, 0x4b, 0x3b, 
, 0xb6, 0x4e, 0x29, 0x3b, 0xf9, 0x96, 0x0c, 0x3b, 0xf9, 0x84, 0xef, 0x3a, 
, 0x36, 0x62, 0x16, 0x3b, 0x12, 0x00, 0x00, 0x00, 0x74, 0x66, 0x6c, 0x2e, 
, 0x70, 0x73, 0x65, 0x75, 0x64, 0x6f, 0x5f, 0x71, 0x63, 0x6f, 0x6e, 0x73, 
, 0x74, 0x32, 0x00, 0x00, 0x01, 0x00, 0x00, 0x00, 0x20, 0x00, 0x00, 0x00, 
, 0xc2, 0xfe, 0xff, 0xff, 0x00, 0x00, 0x00, 0x01, 0x14, 0x00, 0x00, 0x00, 
, 0x70, 0x00, 0x00, 0x00, 0x04, 0x00, 0x00, 0x00, 0x00, 0x00, 0x00, 0x09, 
, 0x7c, 0x00, 0x00, 0x00, 0x3c, 0xfe, 0xff, 0xff, 0x08, 0x00, 0x00, 0x00, 
, 0x3c, 0x00, 0x00, 0x00, 0x06, 0x00, 0x00, 0x00, 0x00, 0x00, 0x00, 0x00, 
, 0x00, 0x00, 0x00, 0x00, 0x00, 0x00, 0x00, 0x00, 0x00, 0x00, 0x00, 0x00, 
, 0x00, 0x00, 0x00, 0x00, 0x00, 0x00, 0x00, 0x00, 0x00, 0x00, 0x00, 0x00, 
, 0x00, 0x00, 0x00, 0x00, 0x00, 0x00, 0x00, 0x00, 0x00, 0x00, 0x00, 0x00, 
, 0x00, 0x00, 0x00, 0x00, 0x00, 0x00, 0x00, 0x00, 0x00, 0x00, 0x00, 0x00, 
, 0x06, 0x00, 0x00, 0x00, 0xa6, 0x91, 0x9a, 0x3b, 0x11, 0x64, 0x71, 0x3b, 
, 0x15, 0x60, 0xa3, 0x3b, 0x03, 0xa2, 0xa5, 0x3b, 0x5e, 0xc1, 0x69, 0x3b, 
, 0x7e, 0x79, 0x54, 0x3b, 0x12, 0x00, 0x00, 0x00, 0x74, 0x66, 0x6c, 0x2e, 
, 0x70, 0x73, 0x65, 0x75, 0x64, 0x6f, 0x5f, 0x71, 0x63, 0x6f, 0x6e, 0x73, 
, 0x74, 0x31, 0x00, 0x00, 0x02, 0x00, 0x00, 0x00, 0x06, 0x00, 0x00, 0x00, 
, 0x20, 0x00, 0x00, 0x00, 0x62, 0xff, 0xff, 0xff, 0x00, 0x00, 0x00, 0x01, 
, 0x14, 0x00, 0x00, 0x00, 0x70, 0x00, 0x00, 0x00, 0x03, 0x00, 0x00, 0x00, 
, 0x00, 0x00, 0x00, 0x02, 0x7c, 0x00, 0x00, 0x00, 0xdc, 0xfe, 0xff, 0xff, 
, 0x08, 0x00, 0x00, 0x00, 0x3c, 0x00, 0x00, 0x00, 0x06, 0x00, 0x00, 0x00, 
, 0x00, 0x00, 0x00, 0x00, 0x00, 0x00, 0x00, 0x00, 0x00, 0x00, 0x00, 0x00, 
, 0x00, 0x00, 0x00, 0x00, 0x00, 0x00, 0x00, 0x00, 0x00, 0x00, 0x00, 0x00, 
, 0x00, 0x00, 0x00, 0x00, 0x00, 0x00, 0x00, 0x00, 0x00, 0x00, 0x00, 0x00, 
, 0x00, 0x00, 0x00, 0x00, 0x00, 0x00, 0x00, 0x00, 0x00, 0x00, 0x00, 0x00, 
, 0x00, 0x00, 0x00, 0x00, 0x06, 0x00, 0x00, 0x00, 0x41, 0xdd, 0x90, 0x39, 
, 0x2e, 0x3c, 0x62, 0x39, 0x25, 0x1e, 0x99, 0x39, 0xca, 0x3b, 0x9b, 0x39, 
, 0x35, 0x14, 0x5b, 0x39, 0x61, 0x22, 0x47, 0x39, 0x11, 0x00, 0x00, 0x00, 
, 0x74, 0x66, 0x6c, 0x2e, 0x70, 0x73, 0x65, 0x75, 0x64, 0x6f, 0x5f, 0x71, 
, 0x63, 0x6f, 0x6e, 0x73, 0x74, 0x00, 0x00, 0x00, 0x01, 0x00, 0x00, 0x00, 
, 0x06, 0x00, 0x00, 0x00, 0x00, 0x00, 0x16, 0x00, 0x1c, 0x00, 0x18, 0x00, 
, 0x17, 0x00, 0x10, 0x00, 0x0c, 0x00, 0x08, 0x00, 0x00, 0x00, 0x00, 0x00, 
, 0x00, 0x00, 0x07, 0x00, 0x16, 0x00, 0x00, 0x00, 0x00, 0x00, 0x00, 0x01, 
, 0x18, 0x00, 0x00, 0x00, 0x18, 0x00, 0x00, 0x00, 0x02, 0x00, 0x00, 0x00, 
, 0x00, 0x00, 0x00, 0x02, 0x20, 0x00, 0x00, 0x00, 0x04, 0x00, 0x04, 0x00, 
, 0x04, 0x00, 0x00, 0x00, 0x0e, 0x00, 0x00, 0x00, 0x61, 0x72, 0x69, 0x74, 
, 0x68, 0x2e, 0x63, 0x6f, 0x6e, 0x73, 0x74, 0x61, 0x6e, 0x74, 0x00, 0x00, 
, 0x01, 0x00, 0x00, 0x00, 0x02, 0x00, 0x00, 0x00, 0x00, 0x00, 0x16, 0x00, 
, 0x20, 0x00, 0x1c, 0x00, 0x1b, 0x00, 0x14, 0x00, 0x10, 0x00, 0x0c, 0x00, 
, 0x00, 0x00, 0x00, 0x00, 0x08, 0x00, 0x07, 0x00, 0x16, 0x00, 0x00, 0x00, 
, 0x00, 0x00, 0x00, 0x01, 0x18, 0x00, 0x00, 0x00, 0x34, 0x00, 0x00, 0x00, 
, 0x50, 0x00, 0x00, 0x00, 0x01, 0x00, 0x00, 0x00, 0x00, 0x00, 0x00, 0x09, 
, 0x68, 0x00, 0x00, 0x00, 0x04, 0x00, 0x00, 0x00, 0xff, 0xff, 0xff, 0xff, 
, 0x20, 0x00, 0x00, 0x00, 0x0d, 0x00, 0x00, 0x00, 0x01, 0x00, 0x00, 0x00, 
, 0x0c, 0x00, 0x0c, 0x00, 0x00, 0x00, 0x00, 0x00, 0x08, 0x00, 0x04, 0x00, 
, 0x0c, 0x00, 0x00, 0x00, 0x08, 0x00, 0x00, 0x00, 0x10, 0x00, 0x00, 0x00, 
, 0x01, 0x00, 0x00, 0x00, 0x48, 0x00, 0x00, 0x00, 0x00, 0x00, 0x00, 0x00, 
, 0x01, 0x00, 0x00, 0x00, 0xa3, 0x72, 0x94, 0x40, 0x1e, 0x00, 0x00, 0x00, 
, 0x73, 0x65, 0x72, 0x76, 0x69, 0x6e, 0x67, 0x5f, 0x64, 0x65, 0x66, 0x61, 
, 0x75, 0x6c, 0x74, 0x5f, 0x6b, 0x65, 0x72, 0x61, 0x73, 0x5f, 0x74, 0x65, 
, 0x6e, 0x73, 0x6f, 0x72, 0x3a, 0x30, 0x00, 0x00, 0x04, 0x00, 0x00, 0x00, 
, 0x01, 0x00, 0x00, 0x00, 0x20, 0x00, 0x00, 0x00, 0x0d, 0x00, 0x00, 0x00, 
, 0x01, 0x00, 0x00, 0x00, 0x06, 0x00, 0x00, 0x00, 0x74, 0x00, 0x00, 0x00, 
, 0x54, 0x00, 0x00, 0x00, 0x40, 0x00, 0x00, 0x00, 0x2c, 0x00, 0x00, 0x00, 
, 0x18, 0x00, 0x00, 0x00, 0x04, 0x00, 0x00, 0x00, 0xb0, 0xff, 0xff, 0xff, 
, 0x19, 0x00, 0x00, 0x00, 0x02, 0x00, 0x00, 0x00, 0x00, 0x00, 0x00, 0x19, 
, 0xc0, 0xff, 0xff, 0xff, 0x09, 0x00, 0x00, 0x00, 0x04, 0x00, 0x00, 0x00, 
, 0x00, 0x00, 0x00, 0x09, 0xd0, 0xff, 0xff, 0xff, 0x28, 0x00, 0x00, 0x00, 
, 0x02, 0x00, 0x00, 0x00, 0x00, 0x00, 0x00, 0x28, 0xe0, 0xff, 0xff, 0xff, 
, 0x04, 0x00, 0x00, 0x00, 0x03, 0x00, 0x00, 0x00, 0x00, 0x00, 0x00, 0x04, 
, 0xf0, 0xff, 0xff, 0xff, 0x11, 0x00, 0x00, 0x00, 0x02, 0x00, 0x00, 0x00, 
, 0x00, 0x00, 0x00, 0x11, 0x0c, 0x00, 0x10, 0x00, 0x0f, 0x00, 0x00, 0x00, 
, 0x08, 0x00, 0x04, 0x00, 0x0c, 0x00, 0x00, 0x00, 0x03, 0x00, 0x00, 0x00, 
, 0x03, 0x00, 0x00, 0x00, 0x00, 0x00, 0x00, 0x03
};
const unsigned int g_model_len = 8552;
